{"<pad>": 0, "<unk>": 1, "<sep>": 2, "<cls>": 3, "\u0001": 4, "\b": 5, "!": 6, "\"": 7, "#": 8, "$": 9, "%": 10, "&": 11, "'": 12, "(": 13, ")": 14, "*": 15, "+": 16, ",": 17, "-": 18, ".": 19, "/": 20, "0": 21, "1": 22, "2": 23, "3": 24, "4": 25, "5": 26, "6": 27, "7": 28, "8": 29, "9": 30, ":": 31, ";": 32, "<": 33, "=": 34, ">": 35, "?": 36, "@": 37, "[": 38, "\\": 39, "]": 40, "^": 41, "_": 42, "`": 43, "a": 44, "b": 45, "c": 46, "d": 47, "e": 48, "f": 49, "g": 50, "h": 51, "i": 52, "j": 53, "k": 54, "l": 55, "m": 56, "n": 57, "o": 58, "p": 59, "q": 60, "r": 61, "s": 62, "t": 63, "u": 64, "v": 65, "w": 66, "x": 67, "y": 68, "z": 69, "{": 70, "|": 71, "}": 72, "~": 73, "£": 74, "©": 75, "ª": 76, "«": 77, "°": 78, "±": 79, "´": 80, "µ": 81, "¶": 82, "·": 83, "º": 84, "»": 85, "×": 86, "ß": 87, "à": 88, "á": 89, "â": 90, "ã": 91, "ä": 92, "å": 93, "æ": 94, "ç": 95, "è": 96, "é": 97, "ê": 98, "ë": 99, "ì": 100, "í": 101, "î": 102, "ï": 103, "ð": 104, "ñ": 105, "ò": 106, "ó": 107, "ô": 108, "õ": 109, "ö": 110, "ø": 111, "ù": 112, "ú": 113, "û": 114, "ü": 115, "ý": 116, "þ": 117, "ā": 118, "ă": 119, "ą": 120, "ć": 121, "č": 122, "ď": 123, "đ": 124, "ē": 125, "ė": 126, "ę": 127, "ě": 128, "ğ": 129, "ģ": 130, "ĩ": 131, "ī": 132, "ı": 133, "ĳ": 134, "ķ": 135, "ļ": 136, "ľ": 137, "ł": 138, "ń": 139, "ņ": 140, "ň": 141, "ő": 142, "œ": 143, "ř": 144, "ś": 145, "ş": 146, "š": 147, "ť": 148, "ũ": 149, "ū": 150, "ů": 151, "ű": 152, "ź": 153, "ż": 154, "ž": 155, "ƒ": 156, "ơ": 157, "ư": 158, "ș": 159, "ț": 160, "ə": 161, "ʹ": 162, "ʻ": 163, "ʼ": 164, "̀": 165, "̇": 166, "ͯ": 167, "·": 168, "ΐ": 169, "ά": 170, "έ": 171, "ή": 172, "ί": 173, "ΰ": 174, "α": 175, "β": 176, "γ": 177, "δ": 178, "ε": 179, "ζ": 180, "η": 181, "θ": 182, "ι": 183, "κ": 184, "λ": 185, "μ": 186, "ν": 187, "ξ": 188, "ο": 189, "π": 190, "ρ": 191, "ς": 192, "σ": 193, "τ": 194, "υ": 195, "φ": 196, "χ": 197, "ψ": 198, "ω": 199, "ϊ": 200, "ϋ": 201, "ό": 202, "ύ": 203, "ώ": 204, "а": 205, "б": 206, "в": 207, "г": 208, "д": 209, "е": 210, "ж": 211, "з": 212, "и": 213, "й": 214, "к": 215, "л": 216, "м": 217, "н": 218, "о": 219, "п": 220, "р": 221, "с": 222, "т": 223, "у": 224, "ф": 225, "х": 226, "ц": 227, "ч": 228, "ш": 229, "щ": 230, "ъ": 231, "ы": 232, "ь": 233, "э": 234, "ю": 235, "я": 236, "ё": 237, "є": 238, "і": 239, "ї": 240, "ј": 241, "҃": 242, "҇": 243, "ґ": 244, "ա": 245, "բ": 246, "գ": 247, "դ": 248, "ե": 249, "զ": 250, "է": 251, "ը": 252, "թ": 253, "ժ": 254, "ի": 255, "լ": 256, "խ": 257, "ծ": 258, "կ": 259, "հ": 260, "ձ": 261, "ղ": 262, "ճ": 263, "մ": 264, "յ": 265, "ն": 266, "շ": 267, "ո": 268, "չ": 269, "պ": 270, "ջ": 271, "ռ": 272, "ս": 273, "վ": 274, "տ": 275, "ր": 276, "ց": 277, "ւ": 278, "փ": 279, "ք": 280, "օ": 281, "ֆ": 282, "և": 283, "֑": 284, "ְ": 285, "ָ": 286, "ֻ": 287, "ֽ": 288, "ֿ": 289, "ׁ": 290, "ׂ": 291, "ׄ": 292, "ׅ": 293, "ׇ": 294, "א": 295, "ב": 296, "ג": 297, "ד": 298, "ה": 299, "ו": 300, "ז": 301, "ח": 302, "ט": 303, "י": 304, "ך": 305, "כ": 306, "ל": 307, "ם": 308, "מ": 309, "ן": 310, "נ": 311, "ס": 312, "ע": 313, "ף": 314, "פ": 315, "ץ": 316, "צ": 317, "ק": 318, "ר": 319, "ש": 320, "ת": 321, "ؐ": 322, "ؚ": 323, "ء": 324, "آ": 325, "أ": 326, "ؤ": 327, "إ": 328, "ئ": 329, "ا": 330, "ب": 331, "ة": 332, "ت": 333, "ث": 334, "ج": 335, "ح": 336, "خ": 337, "د": 338, "ذ": 339, "ر": 340, "ز": 341, "س": 342, "ش": 343, "ص": 344, "ض": 345, "ط": 346, "ظ": 347, "ع": 348, "غ": 349, "ـ": 350, "ف": 351, "ق": 352, "ك": 353, "ل": 354, "م": 355, "ن": 356, "ه": 357, "و": 358, "ى": 359, "ي": 360, "ً": 361, "ٌ": 362, "ٍ": 363, "َ": 364, "ُ": 365, "ِ": 366, "ّ": 367, "ْ": 368, "ٟ": 369, "٠": 370, "١": 371, "٢": 372, "٣": 373, "٤": 374, "٥": 375, "٦": 376, "٧": 377, "٨": 378, "٩": 379, "ٰ": 380, "ٱ": 381, "پ": 382, "چ": 383, "ژ": 384, "ڤ": 385, "ک": 386, "گ": 387, "ھ": 388, "ی": 389, "ۖ": 390, "ۜ": 391, "۟": 392, "ۤ": 393, "ۧ": 394, "ۨ": 395, "۪": 396, "ۭ": 397, "ܑ": 398, "ܰ": 399, "݊": 400, "ަ": 401, "ް": 402, "߫": 403, "߳": 404, "߽": 405, "ࠖ": 406, "࠙": 407, "ࠛ": 408, "ࠣ": 409, "ࠥ": 410, "ࠧ": 411, "ࠩ": 412, "࠭": 413, "࡙": 414, "࡛": 415, "࣓": 416, "࣡": 417, "ࣣ": 418, "ँ": 419, "ं": 420, "ः": 421, "अ": 422, "आ": 423, "इ": 424, "ई": 425, "उ": 426, "ऊ": 427, "ए": 428, "ऐ": 429, "ऑ": 430, "ओ": 431, "औ": 432, "क": 433, "ख": 434, "ग": 435, "घ": 436, "ङ": 437, "च": 438, "छ": 439, "ज": 440, "ञ": 441, "ट": 442, "ड": 443, "ढ": 444, "ण": 445, "त": 446, "थ": 447, "द": 448, "ध": 449, "न": 450, "प": 451, "फ": 452, "ब": 453, "भ": 454, "म": 455, "य": 456, "र": 457, "ल": 458, "व": 459, "श": 460, "ष": 461, "स": 462, "ह": 463, "ऺ": 464, "़": 465, "ा": 466, "ि": 467, "ी": 468, "ु": 469, "ू": 470, "ृ": 471, "े": 472, "ै": 473, "ॉ": 474, "ो": 475, "ौ": 476, "्": 477, "ॏ": 478, "॑": 479, "ॗ": 480, "ज़": 481, "ढ़": 482, "ॢ": 483, "ॣ": 484, "।": 485, "ঁ": 486, "ং": 487, "ঃ": 488, "অ": 489, "আ": 490, "ই": 491, "উ": 492, "এ": 493, "ও": 494, "ক": 495, "খ": 496, "গ": 497, "ঘ": 498, "ঙ": 499, "চ": 500, "ছ": 501, "জ": 502, "ঝ": 503, "ঞ": 504, "ট": 505, "ঠ": 506, "ড": 507, "ঢ": 508, "ণ": 509, "ত": 510, "থ": 511, "দ": 512, "ধ": 513, "ন": 514, "প": 515, "ফ": 516, "ব": 517, "ভ": 518, "ম": 519, "য": 520, "র": 521, "ল": 522, "শ": 523, "ষ": 524, "স": 525, "হ": 526, "়": 527, "া": 528, "ি": 529, "ী": 530, "ু": 531, "ূ": 532, "ৃ": 533, "ৄ": 534, "ে": 535, "ৈ": 536, "ো": 537, "ৌ": 538, "্": 539, "ৗ": 540, "য়": 541, "ৢ": 542, "ৣ": 543, "০": 544, "১": 545, "২": 546, "৩": 547, "৪": 548, "৫": 549, "৬": 550, "৭": 551, "৮": 552, "৯": 553, "ৰ": 554, "৳": 555, "৾": 556, "ਁ": 557, "ਃ": 558, "਼": 559, "ਾ": 560, "ੂ": 561, "ੇ": 562, "ੈ": 563, "ੋ": 564, "੍": 565, "ੑ": 566, "ੰ": 567, "ੱ": 568, "ੵ": 569, "ઁ": 570, "ં": 571, "ઃ": 572, "અ": 573, "આ": 574, "ઉ": 575, "ક": 576, "ખ": 577, "ગ": 578, "ચ": 579, "જ": 580, "ટ": 581, "ઠ": 582, "ઢ": 583, "ણ": 584, "ત": 585, "થ": 586, "દ": 587, "ધ": 588, "ન": 589, "પ": 590, "ફ": 591, "બ": 592, "ભ": 593, "મ": 594, "ય": 595, "ર": 596, "લ": 597, "ળ": 598, "વ": 599, "શ": 600, "ષ": 601, "સ": 602, "હ": 603, "઼": 604, "ા": 605, "િ": 606, "ી": 607, "ુ": 608, "ૂ": 609, "ૃ": 610, "ૅ": 611, "ે": 612, "ૈ": 613, "ૉ": 614, "ો": 615, "ૌ": 616, "્": 617, "ૢ": 618, "ૣ": 619, "ૺ": 620, "૿": 621, "ଁ": 622, "ଃ": 623, "ଅ": 624, "ଆ": 625, "ଇ": 626, "ଉ": 627, "ଏ": 628, "କ": 629, "ଖ": 630, "ଗ": 631, "ଘ": 632, "ଙ": 633, "ଚ": 634, "ଛ": 635, "ଜ": 636, "ଝ": 637, "ଞ": 638, "ଟ": 639, "ଣ": 640, "ତ": 641, "ଦ": 642, "ଧ": 643, "ନ": 644, "ପ": 645, "ଫ": 646, "ବ": 647, "ଭ": 648, "ମ": 649, "ଯ": 650, "ର": 651, "ଲ": 652, "ଳ": 653, "ଶ": 654, "ଷ": 655, "ସ": 656, "ହ": 657, "଼": 658, "ା": 659, "ି": 660, "ୀ": 661, "ୁ": 662, "ୂ": 663, "ୃ": 664, "ୄ": 665, "େ": 666, "ୈ": 667, "ୋ": 668, "ୌ": 669, "୍": 670, "୕": 671, "ୗ": 672, "ୟ": 673, "ୢ": 674, "ୣ": 675, "ୱ": 676, "ஂ": 677, "அ": 678, "ஆ": 679, "இ": 680, "ஈ": 681, "உ": 682, "ஏ": 683, "ஐ": 684, "ஓ": 685, "க": 686, "ங": 687, "ச": 688, "ஜ": 689, "ஞ": 690, "ட": 691, "ண": 692, "த": 693, "ந": 694, "ன": 695, "ப": 696, "ம": 697, "ய": 698, "ர": 699, "ற": 700, "ல": 701, "ள": 702, "ழ": 703, "வ": 704, "ஷ": 705, "ஸ": 706, "ஹ": 707, "ா": 708, "ி": 709, "ீ": 710, "ு": 711, "ூ": 712, "ெ": 713, "ே": 714, "ை": 715, "ொ": 716, "ோ": 717, "்": 718, "ௗ": 719, "ఀ": 720, "ఄ": 721, "ా": 722, "ౄ": 723, "ె": 724, "ై": 725, "ొ": 726, "్": 727, "ౕ": 728, "ౖ": 729, "ౢ": 730, "ౣ": 731, "ಁ": 732, "ಃ": 733, "಼": 734, "ಾ": 735, "ೄ": 736, "ೆ": 737, "ೈ": 738, "ೊ": 739, "್": 740, "ೕ": 741, "ೖ": 742, "ೢ": 743, "ೣ": 744, "ഀ": 745, "ഃ": 746, "഻": 747, "഼": 748, "ാ": 749, "ൄ": 750, "െ": 751, "ൈ": 752, "ൊ": 753, "്": 754, "ൗ": 755, "ൢ": 756, "ൣ": 757, "ඁ": 758, "ඃ": 759, "්": 760, "ා": 761, "ු": 762, "ූ": 763, "ෘ": 764, "ෟ": 765, "ෲ": 766, "ෳ": 767, "ก": 768, "ข": 769, "ฃ": 770, "ค": 771, "ฅ": 772, "ฆ": 773, "ง": 774, "จ": 775, "ฉ": 776, "ช": 777, "ซ": 778, "ฌ": 779, "ญ": 780, "ฎ": 781, "ฏ": 782, "ฐ": 783, "ฑ": 784, "ฒ": 785, "ณ": 786, "ด": 787, "ต": 788, "ถ": 789, "ท": 790, "ธ": 791, "น": 792, "บ": 793, "ป": 794, "ผ": 795, "ฝ": 796, "พ": 797, "ฟ": 798, "ภ": 799, "ม": 800, "ย": 801, "ร": 802, "ฤ": 803, "ล": 804, "ว": 805, "ศ": 806, "ษ": 807, "ส": 808, "ห": 809, "ฬ": 810, "อ": 811, "ฮ": 812, "ะ": 813, "ั": 814, "า": 815, "ำ": 816, "ิ": 817, "ี": 818, "ึ": 819, "ื": 820, "ุ": 821, "ู": 822, "ฺ": 823, "เ": 824, "แ": 825, "โ": 826, "ใ": 827, "ไ": 828, "็": 829, "่": 830, "้": 831, "๊": 832, "๋": 833, "์": 834, "๎": 835, "๐": 836, "๑": 837, "๒": 838, "๓": 839, "๔": 840, "๕": 841, "๖": 842, "๗": 843, "๘": 844, "๙": 845, "ັ": 846, "ິ": 847, "ຼ": 848, "່": 849, "ໍ": 850, "༘": 851, "༙": 852, "༵": 853, "༷": 854, "༹": 855, "༾": 856, "༿": 857, "ཱ": 858, "྄": 859, "྆": 860, "྇": 861, "ྍ": 862, "ྗ": 863, "ྙ": 864, "ྼ": 865, "࿆": 866, "ါ": 867, "ှ": 868, "ၖ": 869, "ၙ": 870, "ၞ": 871, "ၠ": 872, "ၢ": 873, "ၤ": 874, "ၧ": 875, "ၭ": 876, "ၱ": 877, "ၴ": 878, "ႂ": 879, "ႍ": 880, "ႏ": 881, "ႚ": 882, "ႝ": 883, "ა": 884, "ბ": 885, "გ": 886, "დ": 887, "ე": 888, "ვ": 889, "ზ": 890, "თ": 891, "ი": 892, "კ": 893, "ლ": 894, "მ": 895, "ნ": 896, "ო": 897, "პ": 898, "ჟ": 899, "რ": 900, "ს": 901, "ტ": 902, "უ": 903, "ფ": 904, "ქ": 905, "ღ": 906, "ყ": 907, "შ": 908, "ჩ": 909, "ც": 910, "ძ": 911, "წ": 912, "ჭ": 913, "ხ": 914, "ჯ": 915, "ჰ": 916, "፝": 917, "፟": 918, "ᜒ": 919, "᜔": 920, "ᜲ": 921, "᜴": 922, "ᝒ": 923, "ᝓ": 924, "ᝲ": 925, "ᝳ": 926, "឴": 927, "៓": 928, "៝": 929, "᠋": 930, "᠍": 931, "ᢅ": 932, "ᢆ": 933, "ᢩ": 934, "ᤠ": 935, "ᤫ": 936, "ᤰ": 937, "᤻": 938, "ᨗ": 939, "ᨛ": 940, "ᩕ": 941, "ᩞ": 942, "᩠": 943, "᩼": 944, "᩿": 945, "᪰": 946, "᪽": 947, "ᪿ": 948, "ᫀ": 949, "ᬀ": 950, "ᬄ": 951, "᬴": 952, "᭄": 953, "᭫": 954, "᭳": 955, "ᮀ": 956, "ᮂ": 957, "ᮡ": 958, "ᮭ": 959, "᯦": 960, "᯳": 961, "ᰤ": 962, "᰷": 963, "᳐": 964, "᳒": 965, "᳔": 966, "᳨": 967, "᳭": 968, "᳴": 969, "᳷": 970, "᳹": 971, "᷀": 972, "᷹": 973, "᷻": 974, "᷿": 975, "ạ": 976, "ả": 977, "ấ": 978, "ầ": 979, "ẫ": 980, "ậ": 981, "ắ": 982, "ằ": 983, "ẵ": 984, "ặ": 985, "ẹ": 986, "ẻ": 987, "ẽ": 988, "ế": 989, "ề": 990, "ể": 991, "ễ": 992, "ệ": 993, "ỉ": 994, "ị": 995, "ọ": 996, "ỏ": 997, "ố": 998, "ồ": 999, "ổ": 1000, "ỗ": 1001, "ộ": 1002, "ớ": 1003, "ờ": 1004, "ở": 1005, "ỡ": 1006, "ợ": 1007, "ụ": 1008, "ủ": 1009, "ứ": 1010, "ừ": 1011, "ử": 1012, "ữ": 1013, "ự": 1014, "ỹ": 1015, "‌": 1016, "‍": 1017, "–": 1018, "—": 1019, "‘": 1020, "’": 1021, "“": 1022, "”": 1023, "•": 1024, "…": 1025, "‿": 1026, "⁀": 1027, "⁔": 1028, "₀": 1029, "₁": 1030, "₂": 1031, "₫": 1032, "₺": 1033, "⃐": 1034, "⃜": 1035, "⃡": 1036, "⃥": 1037, "⃰": 1038, "№": 1039, "℘": 1040, "℮": 1041, "↑": 1042, "→": 1043, "⇒": 1044, "∂": 1045, "∑": 1046, "∘": 1047, "∠": 1048, "─": 1049, "│": 1050, "┌": 1051, "└": 1052, "├": 1053, "┤": 1054, "┬": 1055, "┴": 1056, "┼": 1057, "╭": 1058, "╮": 1059, "╯": 1060, "╰": 1061, "█": 1062, "☠": 1063, "☹": 1064, "☺": 1065, "♥": 1066, "♻": 1067, "⚙": 1068, "⚠": 1069, "✅": 1070, "✋": 1071, "✌": 1072, "✓": 1073, "✖": 1074, "✨": 1075, "❌": 1076, "❓": 1077, "❗": 1078, "❣": 1079, "❤": 1080, "⧉": 1081, "⳯": 1082, "⳱": 1083, "⵿": 1084, "ⷠ": 1085, "ⷿ": 1086, "、": 1087, "。": 1088, "《": 1089, "》": 1090, "〪": 1091, "〯": 1092, "あ": 1093, "い": 1094, "う": 1095, "え": 1096, "お": 1097, "か": 1098, "き": 1099, "く": 1100, "け": 1101, "げ": 1102, "こ": 1103, "さ": 1104, "し": 1105, "す": 1106, "せ": 1107, "そ": 1108, "た": 1109, "ち": 1110, "っ": 1111, "つ": 1112, "て": 1113, "で": 1114, "と": 1115, "な": 1116, "に": 1117, "ぬ": 1118, "ね": 1119, "の": 1120, "は": 1121, "ひ": 1122, "ふ": 1123, "ぶ": 1124, "ほ": 1125, "ま": 1126, "み": 1127, "む": 1128, "め": 1129, "も": 1130, "や": 1131, "ゆ": 1132, "よ": 1133, "ら": 1134, "り": 1135, "る": 1136, "れ": 1137, "ろ": 1138, "わ": 1139, "を": 1140, "ん": 1141, "゙": 1142, "゚": 1143, "ァ": 1144, "ア": 1145, "ィ": 1146, "イ": 1147, "ウ": 1148, "ェ": 1149, "エ": 1150, "ォ": 1151, "オ": 1152, "カ": 1153, "ガ": 1154, "キ": 1155, "ギ": 1156, "ク": 1157, "グ": 1158, "ケ": 1159, "ゲ": 1160, "コ": 1161, "ゴ": 1162, "サ": 1163, "ザ": 1164, "シ": 1165, "ジ": 1166, "ス": 1167, "ズ": 1168, "セ": 1169, "ゼ": 1170, "ソ": 1171, "タ": 1172, "ダ": 1173, "チ": 1174, "ッ": 1175, "ツ": 1176, "テ": 1177, "デ": 1178, "ト": 1179, "ド": 1180, "ナ": 1181, "ニ": 1182, "ネ": 1183, "ノ": 1184, "ハ": 1185, "バ": 1186, "パ": 1187, "ヒ": 1188, "ビ": 1189, "ピ": 1190, "フ": 1191, "ブ": 1192, "プ": 1193, "ヘ": 1194, "ベ": 1195, "ペ": 1196, "ホ": 1197, "ボ": 1198, "ポ": 1199, "マ": 1200, "ミ": 1201, "ム": 1202, "メ": 1203, "モ": 1204, "ャ": 1205, "ヤ": 1206, "ュ": 1207, "ユ": 1208, "ョ": 1209, "ヨ": 1210, "ラ": 1211, "リ": 1212, "ル": 1213, "レ": 1214, "ロ": 1215, "ワ": 1216, "ン": 1217, "ヴ": 1218, "・": 1219, "ー": 1220, "一": 1221, "丁": 1222, "七": 1223, "万": 1224, "三": 1225, "上": 1226, "下": 1227, "不": 1228, "与": 1229, "专": 1230, "且": 1231, "世": 1232, "业": 1233, "东": 1234, "个": 1235, "中": 1236, "丰": 1237, "丹": 1238, "为": 1239, "主": 1240, "丽": 1241, "么": 1242, "之": 1243, "乌": 1244, "乏": 1245, "乐": 1246, "九": 1247, "也": 1248, "习": 1249, "了": 1250, "予": 1251, "事": 1252, "二": 1253, "于": 1254, "云": 1255, "互": 1256, "五": 1257, "些": 1258, "亞": 1259, "交": 1260, "产": 1261, "享": 1262, "京": 1263, "亭": 1264, "亮": 1265, "亰": 1266, "人": 1267, "亿": 1268, "什": 1269, "仁": 1270, "今": 1271, "介": 1272, "仕": 1273, "他": 1274, "代": 1275, "以": 1276, "仪": 1277, "们": 1278, "仲": 1279, "件": 1280, "价": 1281, "任": 1282, "份": 1283, "仿": 1284, "企": 1285, "伊": 1286, "众": 1287, "优": 1288, "会": 1289, "伟": 1290, "传": 1291, "估": 1292, "但": 1293, "佈": 1294, "位": 1295, "住": 1296, "佐": 1297, "体": 1298, "何": 1299, "作": 1300, "你": 1301, "佳": 1302, "使": 1303, "來": 1304, "供": 1305, "依": 1306, "俊": 1307, "保": 1308, "信": 1309, "修": 1310, "倉": 1311, "個": 1312, "們": 1313, "倒": 1314, "候": 1315, "倩": 1316, "倫": 1317, "值": 1318, "偏": 1319, "健": 1320, "備": 1321, "储": 1322, "催": 1323, "傳": 1324, "傷": 1325, "價": 1326, "優": 1327, "儲": 1328, "元": 1329, "充": 1330, "兆": 1331, "光": 1332, "克": 1333, "免": 1334, "入": 1335, "內": 1336, "全": 1337, "八": 1338, "公": 1339, "六": 1340, "兰": 1341, "共": 1342, "关": 1343, "兴": 1344, "兵": 1345, "其": 1346, "具": 1347, "冀": 1348, "内": 1349, "冊": 1350, "册": 1351, "再": 1352, "军": 1353, "农": 1354, "冠": 1355, "冬": 1356, "冯": 1357, "况": 1358, "准": 1359, "凌": 1360, "凤": 1361, "凯": 1362, "凱": 1363, "出": 1364, "击": 1365, "分": 1366, "刊": 1367, "划": 1368, "列": 1369, "刘": 1370, "刚": 1371, "创": 1372, "判": 1373, "別": 1374, "利": 1375, "别": 1376, "到": 1377, "制": 1378, "刷": 1379, "券": 1380, "刻": 1381, "前": 1382, "剤": 1383, "副": 1384, "割": 1385, "創": 1386, "劃": 1387, "劍": 1388, "力": 1389, "办": 1390, "功": 1391, "加": 1392, "务": 1393, "动": 1394, "助": 1395, "励": 1396, "势": 1397, "勇": 1398, "動": 1399, "務": 1400, "勝": 1401, "勞": 1402, "勢": 1403, "勤": 1404, "包": 1405, "化": 1406, "北": 1407, "区": 1408, "医": 1409, "十": 1410, "千": 1411, "升": 1412, "半": 1413, "华": 1414, "协": 1415, "卑": 1416, "卓": 1417, "協": 1418, "单": 1419, "南": 1420, "博": 1421, "占": 1422, "卯": 1423, "印": 1424, "卿": 1425, "压": 1426, "原": 1427, "厳": 1428, "县": 1429, "参": 1430, "及": 1431, "友": 1432, "双": 1433, "反": 1434, "发": 1435, "叔": 1436, "变": 1437, "口": 1438, "古": 1439, "只": 1440, "可": 1441, "台": 1442, "史": 1443, "号": 1444, "司": 1445, "合": 1446, "吉": 1447, "吊": 1448, "同": 1449, "名": 1450, "后": 1451, "君": 1452, "吴": 1453, "吸": 1454, "吾": 1455, "告": 1456, "员": 1457, "周": 1458, "味": 1459, "呼": 1460, "命": 1461, "和": 1462, "品": 1463, "哈": 1464, "响": 1465, "員": 1466, "哲": 1467, "唐": 1468, "售": 1469, "商": 1470, "問": 1471, "善": 1472, "喜": 1473, "單": 1474, "営": 1475, "嘉": 1476, "器": 1477, "噴": 1478, "四": 1479, "回": 1480, "因": 1481, "团": 1482, "図": 1483, "国": 1484, "图": 1485, "國": 1486, "園": 1487, "圖": 1488, "團": 1489, "土": 1490, "在": 1491, "地": 1492, "场": 1493, "址": 1494, "坛": 1495, "坤": 1496, "坪": 1497, "埋": 1498, "城": 1499, "埔": 1500, "域": 1501, "基": 1502, "堂": 1503, "堡": 1504, "報": 1505, "場": 1506, "塑": 1507, "塗": 1508, "境": 1509, "增": 1510, "壇": 1511, "壓": 1512, "壢": 1513, "士": 1514, "壮": 1515, "声": 1516, "売": 1517, "壽": 1518, "复": 1519, "夏": 1520, "外": 1521, "多": 1522, "大": 1523, "天": 1524, "太": 1525, "央": 1526, "头": 1527, "奇": 1528, "奈": 1529, "奏": 1530, "奥": 1531, "奧": 1532, "奨": 1533, "女": 1534, "好": 1535, "如": 1536, "始": 1537, "姓": 1538, "威": 1539, "娛": 1540, "娜": 1541, "娟": 1542, "娥": 1543, "婦": 1544, "婷": 1545, "媒": 1546, "嫁": 1547, "子": 1548, "字": 1549, "孙": 1550, "孝": 1551, "学": 1552, "學": 1553, "宁": 1554, "它": 1555, "宇": 1556, "安": 1557, "宋": 1558, "宏": 1559, "官": 1560, "宜": 1561, "实": 1562, "実": 1563, "客": 1564, "宣": 1565, "室": 1566, "害": 1567, "家": 1568, "容": 1569, "密": 1570, "富": 1571, "察": 1572, "實": 1573, "寧": 1574, "審": 1575, "寵": 1576, "寺": 1577, "导": 1578, "対": 1579, "寿": 1580, "封": 1581, "射": 1582, "專": 1583, "尊": 1584, "導": 1585, "小": 1586, "尔": 1587, "就": 1588, "尾": 1589, "尿": 1590, "局": 1591, "居": 1592, "屋": 1593, "屏": 1594, "展": 1595, "屯": 1596, "山": 1597, "岡": 1598, "岩": 1599, "峰": 1600, "島": 1601, "峻": 1602, "崇": 1603, "崎": 1604, "嵌": 1605, "川": 1606, "州": 1607, "巢": 1608, "工": 1609, "巨": 1610, "差": 1611, "己": 1612, "已": 1613, "巴": 1614, "巷": 1615, "市": 1616, "布": 1617, "帅": 1618, "帆": 1619, "师": 1620, "希": 1621, "帖": 1622, "師": 1623, "席": 1624, "常": 1625, "幌": 1626, "平": 1627, "幹": 1628, "幼": 1629, "广": 1630, "庄": 1631, "庆": 1632, "库": 1633, "应": 1634, "店": 1635, "府": 1636, "度": 1637, "座": 1638, "庫": 1639, "庭": 1640, "康": 1641, "廚": 1642, "廠": 1643, "廣": 1644, "延": 1645, "建": 1646, "开": 1647, "式": 1648, "引": 1649, "弘": 1650, "张": 1651, "弥": 1652, "張": 1653, "強": 1654, "强": 1655, "形": 1656, "彩": 1657, "彬": 1658, "彭": 1659, "彰": 1660, "影": 1661, "待": 1662, "律": 1663, "後": 1664, "徐": 1665, "復": 1666, "微": 1667, "德": 1668, "徽": 1669, "心": 1670, "必": 1671, "志": 1672, "忠": 1673, "快": 1674, "怀": 1675, "态": 1676, "怎": 1677, "怒": 1678, "思": 1679, "怡": 1680, "急": 1681, "总": 1682, "恒": 1683, "恩": 1684, "息": 1685, "悅": 1686, "悌": 1687, "情": 1688, "惠": 1689, "想": 1690, "意": 1691, "愛": 1692, "感": 1693, "慈": 1694, "態": 1695, "慧": 1696, "憲": 1697, "應": 1698, "戏": 1699, "成": 1700, "我": 1701, "戦": 1702, "戲": 1703, "戴": 1704, "戶": 1705, "户": 1706, "戸": 1707, "房": 1708, "所": 1709, "手": 1710, "执": 1711, "承": 1712, "技": 1713, "投": 1714, "护": 1715, "拉": 1716, "拓": 1717, "招": 1718, "拟": 1719, "拡": 1720, "择": 1721, "持": 1722, "指": 1723, "换": 1724, "据": 1725, "捷": 1726, "授": 1727, "排": 1728, "採": 1729, "探": 1730, "控": 1731, "推": 1732, "提": 1733, "摩": 1734, "播": 1735, "擁": 1736, "擇": 1737, "擊": 1738, "操": 1739, "支": 1740, "收": 1741, "改": 1742, "放": 1743, "政": 1744, "效": 1745, "敏": 1746, "救": 1747, "教": 1748, "敬": 1749, "数": 1750, "敵": 1751, "數": 1752, "文": 1753, "斌": 1754, "斗": 1755, "料": 1756, "斯": 1757, "新": 1758, "方": 1759, "於": 1760, "施": 1761, "旅": 1762, "族": 1763, "旗": 1764, "无": 1765, "日": 1766, "旭": 1767, "时": 1768, "旺": 1769, "昂": 1770, "昆": 1771, "昊": 1772, "昌": 1773, "明": 1774, "易": 1775, "星": 1776, "映": 1777, "春": 1778, "是": 1779, "显": 1780, "時": 1781, "晃": 1782, "晋": 1783, "晖": 1784, "晨": 1785, "普": 1786, "景": 1787, "晶": 1788, "智": 1789, "暖": 1790, "曜": 1791, "曲": 1792, "更": 1793, "書": 1794, "曹": 1795, "曼": 1796, "曾": 1797, "最": 1798, "會": 1799, "月": 1800, "有": 1801, "朋": 1802, "服": 1803, "望": 1804, "朝": 1805, "期": 1806, "木": 1807, "本": 1808, "札": 1809, "术": 1810, "朱": 1811, "朴": 1812, "机": 1813, "李": 1814, "村": 1815, "来": 1816, "杨": 1817, "杭": 1818, "杰": 1819, "東": 1820, "松": 1821, "板": 1822, "极": 1823, "构": 1824, "析": 1825, "林": 1826, "果": 1827, "枝": 1828, "架": 1829, "柔": 1830, "查": 1831, "柳": 1832, "査": 1833, "栄": 1834, "标": 1835, "栗": 1836, "校": 1837, "株": 1838, "样": 1839, "核": 1840, "格": 1841, "桂": 1842, "桃": 1843, "案": 1844, "档": 1845, "梁": 1846, "梅": 1847, "森": 1848, "椎": 1849, "検": 1850, "楊": 1851, "楠": 1852, "業": 1853, "極": 1854, "楽": 1855, "榮": 1856, "樂": 1857, "樊": 1858, "樓": 1859, "標": 1860, "模": 1861, "樣": 1862, "横": 1863, "樹": 1864, "橋": 1865, "機": 1866, "橫": 1867, "檢": 1868, "櫥": 1869, "權": 1870, "欠": 1871, "次": 1872, "欢": 1873, "欣": 1874, "歌": 1875, "止": 1876, "正": 1877, "武": 1878, "歯": 1879, "歷": 1880, "段": 1881, "母": 1882, "毕": 1883, "民": 1884, "气": 1885, "気": 1886, "水": 1887, "永": 1888, "求": 1889, "汇": 1890, "汉": 1891, "汎": 1892, "汐": 1893, "江": 1894, "池": 1895, "汽": 1896, "沈": 1897, "沒": 1898, "沙": 1899, "沟": 1900, "没": 1901, "沪": 1902, "河": 1903, "油": 1904, "治": 1905, "況": 1906, "法": 1907, "波": 1908, "注": 1909, "泰": 1910, "洁": 1911, "洋": 1912, "津": 1913, "洲": 1914, "活": 1915, "派": 1916, "流": 1917, "浅": 1918, "测": 1919, "济": 1920, "浔": 1921, "浙": 1922, "浜": 1923, "浦": 1924, "浩": 1925, "海": 1926, "涛": 1927, "涪": 1928, "涼": 1929, "淄": 1930, "淑": 1931, "淡": 1932, "淮": 1933, "淳": 1934, "清": 1935, "渝": 1936, "渠": 1937, "渡": 1938, "渤": 1939, "測": 1940, "港": 1941, "游": 1942, "湖": 1943, "湘": 1944, "湾": 1945, "源": 1946, "溝": 1947, "溪": 1948, "滦": 1949, "滨": 1950, "漆": 1951, "演": 1952, "漢": 1953, "漫": 1954, "潔": 1955, "潢": 1956, "潭": 1957, "澎": 1958, "澳": 1959, "激": 1960, "濟": 1961, "灣": 1962, "火": 1963, "点": 1964, "為": 1965, "無": 1966, "然": 1967, "燁": 1968, "燕": 1969, "營": 1970, "燦": 1971, "爭": 1972, "父": 1973, "片": 1974, "版": 1975, "牌": 1976, "牡": 1977, "牧": 1978, "物": 1979, "特": 1980, "犯": 1981, "状": 1982, "狀": 1983, "狐": 1984, "狭": 1985, "玉": 1986, "王": 1987, "环": 1988, "现": 1989, "玲": 1990, "珍": 1991, "珠": 1992, "班": 1993, "現": 1994, "球": 1995, "理": 1996, "琳": 1997, "琴": 1998, "琼": 1999, "瑜": 2000, "瑞": 2001, "璐": 2002, "璧": 2003, "環": 2004, "甘": 2005, "生": 2006, "產": 2007, "産": 2008, "用": 2009, "由": 2010, "申": 2011, "电": 2012, "画": 2013, "畅": 2014, "界": 2015, "略": 2016, "番": 2017, "畫": 2018, "當": 2019, "疆": 2020, "療": 2021, "癌": 2022, "発": 2023, "登": 2024, "發": 2025, "白": 2026, "百": 2027, "的": 2028, "皐": 2029, "皖": 2030, "益": 2031, "监": 2032, "盒": 2033, "盟": 2034, "監": 2035, "目": 2036, "直": 2037, "相": 2038, "省": 2039, "看": 2040, "真": 2041, "眠": 2042, "眾": 2043, "督": 2044, "睦": 2045, "睿": 2046, "知": 2047, "石": 2048, "码": 2049, "研": 2050, "硕": 2051, "硬": 2052, "碁": 2053, "碧": 2054, "碩": 2055, "磁": 2056, "磊": 2057, "示": 2058, "社": 2059, "神": 2060, "票": 2061, "福": 2062, "禾": 2063, "秀": 2064, "种": 2065, "科": 2066, "积": 2067, "称": 2068, "移": 2069, "稅": 2070, "程": 2071, "稔": 2072, "種": 2073, "稱": 2074, "積": 2075, "究": 2076, "空": 2077, "突": 2078, "窗": 2079, "立": 2080, "站": 2081, "章": 2082, "端": 2083, "竹": 2084, "竿": 2085, "笑": 2086, "符": 2087, "等": 2088, "策": 2089, "算": 2090, "管": 2091, "築": 2092, "篤": 2093, "粤": 2094, "粧": 2095, "精": 2096, "糖": 2097, "系": 2098, "紀": 2099, "紅": 2100, "紙": 2101, "級": 2102, "索": 2103, "細": 2104, "紹": 2105, "組": 2106, "経": 2107, "結": 2108, "絡": 2109, "給": 2110, "統": 2111, "絵": 2112, "經": 2113, "続": 2114, "維": 2115, "網": 2116, "綾": 2117, "線": 2118, "編": 2119, "緩": 2120, "練": 2121, "緻": 2122, "織": 2123, "繪": 2124, "红": 2125, "级": 2126, "纪": 2127, "线": 2128, "细": 2129, "绍": 2130, "经": 2131, "络": 2132, "统": 2133, "维": 2134, "编": 2135, "网": 2136, "罗": 2137, "罪": 2138, "置": 2139, "罳": 2140, "美": 2141, "群": 2142, "義": 2143, "習": 2144, "翔": 2145, "翼": 2146, "老": 2147, "者": 2148, "而": 2149, "耐": 2150, "联": 2151, "聞": 2152, "聡": 2153, "聪": 2154, "聯": 2155, "職": 2156, "肃": 2157, "股": 2158, "肥": 2159, "育": 2160, "胡": 2161, "能": 2162, "脊": 2163, "脑": 2164, "脚": 2165, "腐": 2166, "腦": 2167, "腾": 2168, "膠": 2169, "自": 2170, "致": 2171, "臺": 2172, "與": 2173, "興": 2174, "舞": 2175, "航": 2176, "般": 2177, "良": 2178, "艳": 2179, "艺": 2180, "艾": 2181, "芝": 2182, "芬": 2183, "芯": 2184, "花": 2185, "芳": 2186, "芸": 2187, "苏": 2188, "苗": 2189, "英": 2190, "荆": 2191, "草": 2192, "荐": 2193, "荣": 2194, "莉": 2195, "莊": 2196, "莒": 2197, "莹": 2198, "菊": 2199, "華": 2200, "菸": 2201, "萄": 2202, "萊": 2203, "萍": 2204, "营": 2205, "萧": 2206, "萨": 2207, "萬": 2208, "落": 2209, "葉": 2210, "葡": 2211, "蒙": 2212, "蓄": 2213, "蓟": 2214, "蓮": 2215, "薦": 2216, "薬": 2217, "藏": 2218, "藤": 2219, "藥": 2220, "蘆": 2221, "蘭": 2222, "虐": 2223, "號": 2224, "虹": 2225, "虽": 2226, "血": 2227, "行": 2228, "術": 2229, "街": 2230, "衛": 2231, "衝": 2232, "衣": 2233, "表": 2234, "裁": 2235, "裕": 2236, "補": 2237, "裝": 2238, "裡": 2239, "製": 2240, "褒": 2241, "襄": 2242, "西": 2243, "要": 2244, "見": 2245, "規": 2246, "視": 2247, "覚": 2248, "覧": 2249, "親": 2250, "覺": 2251, "视": 2252, "觉": 2253, "言": 2254, "計": 2255, "訊": 2256, "託": 2257, "記": 2258, "設": 2259, "証": 2260, "評": 2261, "試": 2262, "話": 2263, "該": 2264, "詳": 2265, "誌": 2266, "認": 2267, "誠": 2268, "説": 2269, "調": 2270, "論": 2271, "諸": 2272, "謝": 2273, "警": 2274, "議": 2275, "護": 2276, "讀": 2277, "计": 2278, "认": 2279, "讯": 2280, "记": 2281, "许": 2282, "论": 2283, "设": 2284, "证": 2285, "评": 2286, "试": 2287, "诚": 2288, "话": 2289, "该": 2290, "详": 2291, "语": 2292, "诺": 2293, "读": 2294, "调": 2295, "谢": 2296, "豐": 2297, "象": 2298, "豫": 2299, "豹": 2300, "貞": 2301, "貨": 2302, "販": 2303, "買": 2304, "費": 2305, "貿": 2306, "資": 2307, "賓": 2308, "賛": 2309, "賞": 2310, "賣": 2311, "質": 2312, "质": 2313, "购": 2314, "贵": 2315, "费": 2316, "资": 2317, "赣": 2318, "赤": 2319, "走": 2320, "赵": 2321, "起": 2322, "超": 2323, "越": 2324, "趋": 2325, "足": 2326, "路": 2327, "車": 2328, "軟": 2329, "転": 2330, "軸": 2331, "載": 2332, "輝": 2333, "輸": 2334, "软": 2335, "载": 2336, "辅": 2337, "辉": 2338, "辑": 2339, "输": 2340, "辛": 2341, "辦": 2342, "農": 2343, "込": 2344, "辽": 2345, "迅": 2346, "过": 2347, "运": 2348, "近": 2349, "还": 2350, "这": 2351, "进": 2352, "远": 2353, "迪": 2354, "迴": 2355, "追": 2356, "送": 2357, "选": 2358, "這": 2359, "通": 2360, "連": 2361, "週": 2362, "進": 2363, "遊": 2364, "運": 2365, "過": 2366, "道": 2367, "達": 2368, "遞": 2369, "遠": 2370, "選": 2371, "還": 2372, "邓": 2373, "那": 2374, "邦": 2375, "邮": 2376, "邯": 2377, "郎": 2378, "郑": 2379, "部": 2380, "郭": 2381, "郵": 2382, "郸": 2383, "都": 2384, "鄂": 2385, "配": 2386, "酒": 2387, "醫": 2388, "里": 2389, "重": 2390, "野": 2391, "量": 2392, "金": 2393, "鈴": 2394, "鉱": 2395, "銀": 2396, "銷": 2397, "鋼": 2398, "錯": 2399, "鎮": 2400, "鐵": 2401, "鑄": 2402, "鑫": 2403, "银": 2404, "销": 2405, "锡": 2406, "镇": 2407, "長": 2408, "长": 2409, "門": 2410, "開": 2411, "間": 2412, "閱": 2413, "關": 2414, "门": 2415, "问": 2416, "间": 2417, "闵": 2418, "闻": 2419, "闽": 2420, "阅": 2421, "阜": 2422, "阪": 2423, "防": 2424, "阳": 2425, "阿": 2426, "陀": 2427, "际": 2428, "陆": 2429, "陈": 2430, "限": 2431, "陕": 2432, "陵": 2433, "陶": 2434, "陸": 2435, "険": 2436, "陽": 2437, "隆": 2438, "隊": 2439, "際": 2440, "障": 2441, "隠": 2442, "險": 2443, "隻": 2444, "雄": 2445, "雅": 2446, "集": 2447, "雖": 2448, "雙": 2449, "雜": 2450, "雨": 2451, "雪": 2452, "雯": 2453, "雲": 2454, "零": 2455, "雷": 2456, "電": 2457, "需": 2458, "霜": 2459, "霞": 2460, "青": 2461, "静": 2462, "非": 2463, "靠": 2464, "面": 2465, "革": 2466, "鞍": 2467, "韓": 2468, "韩": 2469, "音": 2470, "響": 2471, "頁": 2472, "頂": 2473, "項": 2474, "領": 2475, "頭": 2476, "題": 2477, "顯": 2478, "页": 2479, "项": 2480, "顾": 2481, "领": 2482, "频": 2483, "颖": 2484, "题": 2485, "風": 2486, "风": 2487, "飞": 2488, "食": 2489, "飯": 2490, "飲": 2491, "飼": 2492, "養": 2493, "餐": 2494, "首": 2495, "香": 2496, "馬": 2497, "驗": 2498, "马": 2499, "验": 2500, "體": 2501, "高": 2502, "魏": 2503, "鮮": 2504, "鲁": 2505, "鳳": 2506, "鴻": 2507, "鸿": 2508, "鹏": 2509, "麒": 2510, "麗": 2511, "麟": 2512, "麥": 2513, "麼": 2514, "黄": 2515, "黑": 2516, "點": 2517, "鼎": 2518, "齐": 2519, "龍": 2520, "龙": 2521, "꙯": 2522, "ꙴ": 2523, "꙽": 2524, "ꚞ": 2525, "ꚟ": 2526, "꛰": 2527, "꛱": 2528, "ꠂ": 2529, "꠆": 2530, "ꠋ": 2531, "ꠣ": 2532, "ꠧ": 2533, "꠬": 2534, "ꢀ": 2535, "ꢁ": 2536, "ꢴ": 2537, "ꣅ": 2538, "꣠": 2539, "꣱": 2540, "ꣿ": 2541, "ꤦ": 2542, "꤭": 2543, "ꥇ": 2544, "꥓": 2545, "ꦀ": 2546, "ꦃ": 2547, "꦳": 2548, "꧀": 2549, "ꧥ": 2550, "ꨩ": 2551, "ꨶ": 2552, "ꩃ": 2553, "ꩌ": 2554, "ꩍ": 2555, "ꩻ": 2556, "ꩽ": 2557, "ꪰ": 2558, "ꪲ": 2559, "ꪴ": 2560, "ꪷ": 2561, "ꪸ": 2562, "ꪾ": 2563, "꪿": 2564, "꫁": 2565, "ꫫ": 2566, "ꫯ": 2567, "ꫵ": 2568, "꫶": 2569, "ꯣ": 2570, "ꯪ": 2571, "꯬": 2572, "꯭": 2573, "가": 2574, "간": 2575, "강": 2576, "개": 2577, "객": 2578, "거": 2579, "건": 2580, "검": 2581, "결": 2582, "경": 2583, "계": 2584, "고": 2585, "공": 2586, "과": 2587, "관": 2588, "광": 2589, "괴": 2590, "교": 2591, "구": 2592, "국": 2593, "군": 2594, "권": 2595, "그": 2596, "글": 2597, "금": 2598, "급": 2599, "기": 2600, "길": 2601, "김": 2602, "나": 2603, "남": 2604, "낮": 2605, "너": 2606, "널": 2607, "네": 2608, "년": 2609, "노": 2610, "논": 2611, "농": 2612, "누": 2613, "는": 2614, "능": 2615, "니": 2616, "다": 2617, "단": 2618, "달": 2619, "담": 2620, "당": 2621, "대": 2622, "더": 2623, "덕": 2624, "데": 2625, "도": 2626, "독": 2627, "동": 2628, "되": 2629, "된": 2630, "두": 2631, "둔": 2632, "듈": 2633, "드": 2634, "든": 2635, "등": 2636, "디": 2637, "라": 2638, "락": 2639, "람": 2640, "래": 2641, "랫": 2642, "량": 2643, "러": 2644, "레": 2645, "력": 2646, "련": 2647, "렬": 2648, "령": 2649, "로": 2650, "록": 2651, "료": 2652, "룡": 2653, "루": 2654, "룹": 2655, "류": 2656, "률": 2657, "른": 2658, "름": 2659, "릉": 2660, "리": 2661, "림": 2662, "립": 2663, "링": 2664, "마": 2665, "만": 2666, "맞": 2667, "매": 2668, "맥": 2669, "머": 2670, "멀": 2671, "며": 2672, "면": 2673, "명": 2674, "모": 2675, "목": 2676, "무": 2677, "문": 2678, "물": 2679, "미": 2680, "믹": 2681, "민": 2682, "밀": 2683, "밍": 2684, "및": 2685, "바": 2686, "박": 2687, "반": 2688, "발": 2689, "방": 2690, "백": 2691, "버": 2692, "번": 2693, "벌": 2694, "범": 2695, "법": 2696, "베": 2697, "벽": 2698, "변": 2699, "별": 2700, "병": 2701, "보": 2702, "복": 2703, "부": 2704, "북": 2705, "분": 2706, "브": 2707, "비": 2708, "빈": 2709, "빌": 2710, "사": 2711, "산": 2712, "삼": 2713, "상": 2714, "생": 2715, "서": 2716, "석": 2717, "선": 2718, "설": 2719, "섬": 2720, "성": 2721, "세": 2722, "소": 2723, "속": 2724, "송": 2725, "수": 2726, "숙": 2727, "순": 2728, "술": 2729, "스": 2730, "습": 2731, "승": 2732, "시": 2733, "식": 2734, "신": 2735, "실": 2736, "심": 2737, "아": 2738, "안": 2739, "알": 2740, "압": 2741, "약": 2742, "양": 2743, "어": 2744, "언": 2745, "업": 2746, "에": 2747, "엔": 2748, "여": 2749, "역": 2750, "연": 2751, "영": 2752, "예": 2753, "오": 2754, "옥": 2755, "올": 2756, "완": 2757, "왕": 2758, "요": 2759, "용": 2760, "우": 2761, "운": 2762, "울": 2763, "움": 2764, "워": 2765, "원": 2766, "월": 2767, "웨": 2768, "웹": 2769, "위": 2770, "유": 2771, "육": 2772, "윤": 2773, "율": 2774, "융": 2775, "은": 2776, "을": 2777, "음": 2778, "읍": 2779, "응": 2780, "의": 2781, "이": 2782, "익": 2783, "인": 2784, "일": 2785, "임": 2786, "있": 2787, "자": 2788, "작": 2789, "장": 2790, "재": 2791, "저": 2792, "적": 2793, "전": 2794, "절": 2795, "점": 2796, "정": 2797, "제": 2798, "조": 2799, "종": 2800, "주": 2801, "준": 2802, "줄": 2803, "중": 2804, "즈": 2805, "지": 2806, "직": 2807, "진": 2808, "질": 2809, "집": 2810, "착": 2811, "찰": 2812, "창": 2813, "채": 2814, "처": 2815, "척": 2816, "천": 2817, "철": 2818, "청": 2819, "체": 2820, "쳐": 2821, "초": 2822, "총": 2823, "최": 2824, "축": 2825, "춘": 2826, "출": 2827, "충": 2828, "취": 2829, "츠": 2830, "측": 2831, "치": 2832, "친": 2833, "칭": 2834, "캐": 2835, "커": 2836, "컨": 2837, "컬": 2838, "컴": 2839, "크": 2840, "클": 2841, "키": 2842, "킹": 2843, "타": 2844, "탐": 2845, "태": 2846, "택": 2847, "터": 2848, "털": 2849, "텍": 2850, "텐": 2851, "템": 2852, "토": 2853, "통": 2854, "트": 2855, "특": 2856, "티": 2857, "틱": 2858, "파": 2859, "판": 2860, "팔": 2861, "퍼": 2862, "평": 2863, "포": 2864, "폼": 2865, "품": 2866, "퓨": 2867, "프": 2868, "픈": 2869, "플": 2870, "필": 2871, "하": 2872, "학": 2873, "한": 2874, "함": 2875, "합": 2876, "항": 2877, "해": 2878, "행": 2879, "향": 2880, "헌": 2881, "험": 2882, "현": 2883, "형": 2884, "혜": 2885, "호": 2886, "홍": 2887, "화": 2888, "확": 2889, "환": 2890, "활": 2891, "황": 2892, "회": 2893, "획": 2894, "횡": 2895, "효": 2896, "훈": 2897, "휴": 2898, "흥": 2899, "희": 2900, "히": 2901, "ﬞ": 2902, "︀": 2903, "️": 2904, "︠": 2905, "︯": 2906, "︳": 2907, "︴": 2908, "﹍": 2909, "﹏": 2910, "＄": 2911, "（": 2912, "）": 2913, "／": 2914, "＿": 2915, "�": 2916, "𐀀": 2917, "𐇽": 2918, "𐋠": 2919, "𐍶": 2920, "𐍺": 2921, "𐨁": 2922, "𐨃": 2923, "𐨅": 2924, "𐨆": 2925, "𐨌": 2926, "𐨏": 2927, "𐨸": 2928, "𐨺": 2929, "𐨿": 2930, "𐫥": 2931, "𐫦": 2932, "𐴤": 2933, "𐴧": 2934, "𐺫": 2935, "𐺬": 2936, "𐽆": 2937, "𐽐": 2938, "𑀀": 2939, "𑀂": 2940, "𑀸": 2941, "𑁆": 2942, "𑁿": 2943, "𑂂": 2944, "𑂰": 2945, "𑂺": 2946, "𑄀": 2947, "𑄂": 2948, "𑄧": 2949, "𑄴": 2950, "𑅅": 2951, "𑅆": 2952, "𑅳": 2953, "𑆀": 2954, "𑆂": 2955, "𑆳": 2956, "𑇀": 2957, "𑇉": 2958, "𑇌": 2959, "𑇎": 2960, "𑇏": 2961, "𑈬": 2962, "𑈷": 2963, "𑈾": 2964, "𑋟": 2965, "𑋪": 2966, "𑌀": 2967, "𑌃": 2968, "𑌻": 2969, "𑌼": 2970, "𑌾": 2971, "𑍄": 2972, "𑍇": 2973, "𑍈": 2974, "𑍋": 2975, "𑍍": 2976, "𑍗": 2977, "𑍢": 2978, "𑍣": 2979, "𑍦": 2980, "𑍬": 2981, "𑍰": 2982, "𑍴": 2983, "𑐵": 2984, "𑑆": 2985, "𑑞": 2986, "𑒰": 2987, "𑓃": 2988, "𑖯": 2989, "𑖵": 2990, "𑖸": 2991, "𑗀": 2992, "𑗜": 2993, "𑗝": 2994, "𑘰": 2995, "𑙀": 2996, "𑚫": 2997, "𑚷": 2998, "𑜝": 2999, "𑜫": 3000, "𑠬": 3001, "𑠺": 3002, "𑤰": 3003, "𑤵": 3004, "𑤷": 3005, "𑤸": 3006, "𑤻": 3007, "𑤾": 3008, "𑥀": 3009, "𑥂": 3010, "𑥃": 3011, "𑧑": 3012, "𑧗": 3013, "𑧚": 3014, "𑧠": 3015, "𑧤": 3016, "𑨁": 3017, "𑨊": 3018, "𑨳": 3019, "𑨹": 3020, "𑨻": 3021, "𑨾": 3022, "𑩇": 3023, "𑩑": 3024, "𑩛": 3025, "𑪊": 3026, "𑪙": 3027, "𑰯": 3028, "𑰶": 3029, "𑰸": 3030, "𑰿": 3031, "𑲒": 3032, "𑲧": 3033, "𑲩": 3034, "𑲶": 3035, "𑴱": 3036, "𑴶": 3037, "𑴺": 3038, "𑴼": 3039, "𑴽": 3040, "𑴿": 3041, "𑵅": 3042, "𑵇": 3043, "𑶊": 3044, "𑶎": 3045, "𑶐": 3046, "𑶑": 3047, "𑶓": 3048, "𑶗": 3049, "𑻳": 3050, "𑻶": 3051, "𖫰": 3052, "𖫴": 3053, "𖬰": 3054, "𖬶": 3055, "𖽏": 3056, "𖽑": 3057, "𖾇": 3058, "𖾏": 3059, "𖾒": 3060, "𖿤": 3061, "𖿰": 3062, "𖿱": 3063, "𛲝": 3064, "𛲞": 3065, "𝅥": 3066, "𝅩": 3067, "𝅭": 3068, "𝅲": 3069, "𝅻": 3070, "𝆂": 3071, "𝆅": 3072, "𝆋": 3073, "𝆪": 3074, "𝆭": 3075, "𝉂": 3076, "𝉄": 3077, "𝨀": 3078, "𝨶": 3079, "𝨻": 3080, "𝩬": 3081, "𝩵": 3082, "𝪄": 3083, "𝪛": 3084, "𝪟": 3085, "𝪡": 3086, "𝪯": 3087, "𞀀": 3088, "𞀆": 3089, "𞀈": 3090, "𞀘": 3091, "𞀛": 3092, "𞀡": 3093, "𞀣": 3094, "𞀤": 3095, "𞀦": 3096, "𞀪": 3097, "𞄰": 3098, "𞄶": 3099, "𞋬": 3100, "𞋯": 3101, "𞣐": 3102, "𞣖": 3103, "𞥄": 3104, "𞥊": 3105, "🇧": 3106, "🇩": 3107, "🉐": 3108, "🌀": 3109, "🌫": 3110, "🏻": 3111, "🏼": 3112, "🏽": 3113, "🏾": 3114, "🏿": 3115, "🐈": 3116, "👁": 3117, "👋": 3118, "👌": 3119, "👥": 3120, "👹": 3121, "👺": 3122, "👻": 3123, "👽": 3124, "👾": 3125, "👿": 3126, "💀": 3127, "💋": 3128, "💌": 3129, "💓": 3130, "💔": 3131, "💕": 3132, "💖": 3133, "💗": 3134, "💘": 3135, "💙": 3136, "💚": 3137, "💛": 3138, "💜": 3139, "💝": 3140, "💞": 3141, "💟": 3142, "💢": 3143, "💣": 3144, "💤": 3145, "💥": 3146, "💦": 3147, "💨": 3148, "💩": 3149, "💫": 3150, "💬": 3151, "💭": 3152, "💯": 3153, "🔥": 3154, "🕳": 3155, "🖐": 3156, "🖖": 3157, "🖤": 3158, "🗨": 3159, "🗯": 3160, "😀": 3161, "😁": 3162, "😂": 3163, "😃": 3164, "😄": 3165, "😅": 3166, "😆": 3167, "😇": 3168, "😈": 3169, "😉": 3170, "😊": 3171, "😋": 3172, "😌": 3173, "😍": 3174, "😎": 3175, "😏": 3176, "😐": 3177, "😑": 3178, "😒": 3179, "😓": 3180, "😔": 3181, "😕": 3182, "😖": 3183, "😗": 3184, "😘": 3185, "😙": 3186, "😚": 3187, "😛": 3188, "😜": 3189, "😝": 3190, "😞": 3191, "😟": 3192, "😠": 3193, "😡": 3194, "😢": 3195, "😣": 3196, "😤": 3197, "😥": 3198, "😦": 3199, "😧": 3200, "😨": 3201, "😩": 3202, "😪": 3203, "😫": 3204, "😬": 3205, "😭": 3206, "😮": 3207, "😯": 3208, "😰": 3209, "😱": 3210, "😲": 3211, "😳": 3212, "😴": 3213, "😵": 3214, "😶": 3215, "😷": 3216, "😸": 3217, "😹": 3218, "😺": 3219, "😻": 3220, "😼": 3221, "😽": 3222, "😾": 3223, "😿": 3224, "🙀": 3225, "🙁": 3226, "🙂": 3227, "🙃": 3228, "🙄": 3229, "🙈": 3230, "🙉": 3231, "🙊": 3232, "🚀": 3233, "🤌": 3234, "🤍": 3235, "🤎": 3236, "🤏": 3237, "🤐": 3238, "🤑": 3239, "🤒": 3240, "🤓": 3241, "🤔": 3242, "🤕": 3243, "🤖": 3244, "🤗": 3245, "🤚": 3246, "🤞": 3247, "🤟": 3248, "🤠": 3249, "🤡": 3250, "🤢": 3251, "🤣": 3252, "🤤": 3253, "🤥": 3254, "🤧": 3255, "🤨": 3256, "🤩": 3257, "🤪": 3258, "🤫": 3259, "🤬": 3260, "🤭": 3261, "🤮": 3262, "🤯": 3263, "🥰": 3264, "🥱": 3265, "🥲": 3266, "🥳": 3267, "🥴": 3268, "🥵": 3269, "🥶": 3270, "🥸": 3271, "🥺": 3272, "🧐": 3273, "🧡": 3274, "🩹": 3275, "󠄀": 3276, "󠇯": 3277, "er": 3278, "or": 3279, "on": 3280, "es": 3281, "in": 3282, "th": 3283, "as": 3284, "re": 3285, "at": 3286, "en": 3287, "al": 3288, "ro": 3289, "mp": 3290, "se": 3291, "de": 3292, "st": 3293, "an": 3294, "ort": 3295, "imp": 3296, "le": 3297, "ion": 3298, "import": 3299, "ar": 3300, "fro": 3301, "from": 3302, "ct": 3303, "ch": 3304, "est": 3305, "me": 3306, "co": 3307, "ing": 3308, "it": 3309, "ass": 3310, "cl": 3311, "the": 3312, "is": 3313, "em": 3314, "ent": 3315, "test": 3316, "ed": 3317, "ex": 3318, "ur": 3319, "ap": 3320, "fi": 3321, "ut": 3322, "yp": 3323, "def": 3324, "res": 3325, "con": 3326, "typ": 3327, "id": 3328, "tr": 3329, "to": 3330, "un": 3331, "ce": 3332, "py": 3333, "ame": 3334, "str": 3335, "ge": 3336, "for": 3337, "ul": 3338, "ad": 3339, "lo": 3340, "ck": 3341, "sel": 3342, "chem": 3343, "self": 3344, "ert": 3345, "mo": 3346, "no": 3347, "class": 3348, "app": 3349, "ue": 3350, "ab": 3351, "and": 3352, "name": 3353, "__": 3354, "val": 3355, "ql": 3356, "pro": 3357, "pa": 3358, "ate": 3359, "ect": 3360, "li": 3361, "tur": 3362, "sql": 3363, "assert": 3364, "one": 3365, "um": 3366, "el": 3367, "di": 3368, "qu": 3369, "turn": 3370, "ation": 3371, "return": 3372, "us": 3373, "ers": 3374, "wi": 3375, "ti": 3376, "type": 3377, "par": 3378, "int": 3379, "none": 3380, "pt": 3381, "if": 3382, "not": 3383, "of": 3384, "am": 3385, "ult": 3386, "po": 3387, "up": 3388, "ess": 3389, "get": 3390, "cli": 3391, "resp": 3392, "all": 3393, "ke": 3394, "_s": 3395, "respon": 3396, "sqlal": 3397, "chemy": 3398, "sqlalchemy": 3399, "err": 3400, "il": 3401, "be": 3402, "tt": 3403, "col": 3404, "able": 3405, "pytest": 3406, "response": 3407, "ption": 3408, "with": 3409, "arg": 3410, "so": 3411, "path": 3412, "fo": 3413, "error": 3414, "chema": 3415, "client": 3416, "ext": 3417, "requ": 3418, "del": 3419, "ction": 3420, "do": 3421, "bas": 3422, "this": 3423, "ure": 3424, "ri": 3425, "00": 3426, "ma": 3427, "cont": 3428, "end": 3429, "item": 3430, "htt": 3431, "dat": 3432, "that": 3433, "ho": 3434, "http": 3435, "value": 3436, "use": 3437, "yn": 3438, "wh": 3439, "result": 3440, "ast": 3441, "prov": 3442, "ol": 3443, "ra": 3444, "com": 3445, "key": 3446, "comp": 3447, "true": 3448, "api": 3449, "fix": 3450, "ig": 3451, "js": 3452, "ve": 3453, "od": 3454, "code": 3455, "age": 3456, "json": 3457, "cor": 3458, "meth": 3459, "mod": 3460, "ery": 3461, "valid": 3462, "fun": 3463, "confi": 3464, "request": 3465, "ob": 3466, "ync": 3467, "any": 3468, "config": 3469, "op": 3470, "ter": 3471, "ly": 3472, "set": 3473, "typing": 3474, "ject": 3475, "che": 3476, "wor": 3477, "provid": 3478, "fa": 3479, "exp": 3480, "cre": 3481, "by": 3482, "ment": 3483, "async": 3484, "ag": 3485, "ver": 3486, "param": 3487, "model": 3488, "data": 3489, "ine": 3490, "time": 3491, "_name": 3492, "out": 3493, "iz": 3494, "form": 3495, "su": 3496, "call": 3497, "gi": 3498, "pl": 3499, "inst": 3500, "ator": 3501, "vers": 3502, "file": 3503, "user": 3504, "et": 3505, "list": 3506, "run": 3507, "are": 3508, "te": 3509, "we": 3510, "provider": 3511, "ec": 3512, "args": 3513, "eld": 3514, "stat": 3515, "colum": 3516, "try": 3517, "put": 3518, "ated": 3519, "ault": 3520, "column": 3521, "version": 3522, "default": 3523, "mar": 3524, "option": 3525, "ack": 3526, "cal": 3527, "pre": 3528, "schema": 3529, "vi": 3530, "conn": 3531, "add": 3532, "object": 3533, "ask": 3534, "ib": 3535, "attr": 3536, "exce": 3537, "dict": 3538, "orm": 3539, "base": 3540, "ession": 3541, "url": 3542, "date": 3543, "sp": 3544, "bo": 3545, "ren": 3546, "method": 3547, "tic": 3548, "gen": 3549, "ress": 3550, "string": 3551, "field": 3552, "thon": 3553, "eng": 3554, "io": 3555, "lic": 3556, "ign": 3557, "ial": 3558, "dan": 3559, "annot": 3560, "comm": 3561, "test_": 3562, "amp": 3563, "cur": 3564, "connect": 3565, "ker": 3566, "ic": 3567, "mapp": 3568, "ument": 3569, "fast": 3570, "sho": 3571, "gener": 3572, "pydan": 3573, "pydantic": 3574, "python": 3575, "ser": 3576, "load": 3577, "der": 3578, "back": 3579, "ne": 3580, "fastapi": 3581, "ip": 3582, "_schema": 3583, "fal": 3584, "foo": 3585, "atch": 3586, "false": 3587, "ead": 3588, "ca": 3589, "ations": 3590, "om": 3591, "ule": 3592, "hel": 3593, "iter": 3594, "lement": 3595, "testing": 3596, "ll": 3597, "function": 3598, "task": 3599, "ther": 3600, "ac": 3601, "read": 3602, "check": 3603, "les": 3604, "text": 3605, "ory": 3606, "log": 3607, "ev": 3608, "cess": 3609, "session": 3610, "ity": 3611, "info": 3612, "lect": 3613, "ture": 3614, "ref": 3615, "bu": 3616, "module": 3617, "ger": 3618, "ute": 3619, "s_": 3620, "des": 3621, "exception": 3622, "pack": 3623, "ed_": 3624, "table": 3625, "ok": 3626, "ta": 3627, "instan": 3628, "port": 3629, "get_": 3630, "util": 3631, "etry": 3632, "head": 3633, "ase": 3634, "poetry": 3635, "wr": 3636, "_code": 3637, "core": 3638, "sub": 3639, "argument": 3640, "pass": 3641, "sy": 3642, "cel": 3643, "war": 3644, "mock": 3645, "items": 3646, "ate_": 3647, "led": 3648, "ive": 3649, "command": 3650, "pr": 3651, "init": 3652, "ded": 3653, "rent": 3654, "celery": 3655, "low": 3656, "will": 3657, "context": 3658, "mess": 3659, "10": 3660, "engine": 3661, "used": 3662, "ings": 3663, "connection": 3664, "query": 3665, "uld": 3666, "ies": 3667, "num": 3668, "au": 3669, "format": 3670, "status": 3671, "cri": 3672, "lib": 3673, "fixture": 3674, "env": 3675, "event": 3676, "_id": 3677, "ust": 3678, "var": 3679, "parame": 3680, "ore": 3681, "ample": 3682, "dep": 3683, "can": 3684, "instance": 3685, "content": 3686, "red": 3687, "expect": 3688, "ht": 3689, "doc": 3690, "https": 3691, "y_": 3692, "mark": 3693, "lection": 3694, "tra": 3695, "pri": 3696, "wa": 3697, "select": 3698, "testclient": 3699, "ize": 3700, "inter": 3701, "auth": 3702, "when": 3703, "ain": 3704, "warn": 3705, "bar": 3706, "attrib": 3707, "kw": 3708, "urce": 3709, "fir": 3710, "ang": 3711, "ff": 3712, "sit": 3713, "message": 3714, "rect": 3715, "types": 3716, "collection": 3717, "hand": 3718, "output": 3719, "sup": 3720, "first": 3721, "has": 3722, "ere": 3723, "exec": 3724, "tup": 3725, "star": 3726, "ames": 3727, "ner": 3728, "whi": 3729, "web": 3730, "typer": 3731, "ali": 3732, "12": 3733, "ha": 3734, "200": 3735, "ise": 3736, "post": 3737, "should": 3738, "process": 3739, "func": 3740, "ist": 3741, "constr": 3742, "ml": 3743, "names": 3744, "requi": 3745, "act": 3746, "db": 3747, "ins": 3748, "sys": 3749, "example": 3750, "valu": 3751, "sock": 3752, "input": 3753, "os": 3754, "gro": 3755, "word": 3756, "depend": 3757, "ens": 3758, "source": 3759, "ding": 3760, "temp": 3761, "raise": 3762, "kwargs": 3763, "type_": 3764, "alias": 3765, "open": 3766, "sa": 3767, "package": 3768, "spec": 3769, "fl": 3770, "_re": 3771, "ub": 3772, "ces": 3773, "main": 3774, "ifi": 3775, "inte": 3776, "ber": 3777, "tuple": 3778, "cls": 3779, "last": 3780, "ug": 3781, "mal": 3782, "help": 3783, "new": 3784, "status_code": 3785, "ression": 3786, "which": 3787, "ot": 3788, "sett": 3789, "rais": 3790, "cache": 3791, "my": 3792, "dis": 3793, "local": 3794, "und": 3795, "clu": 3796, "cop": 3797, "headers": 3798, "oper": 3799, "element": 3800, "ci": 3801, "see": 3802, "dial": 3803, "emo": 3804, "tran": 3805, "only": 3806, "dialect": 3807, "_type": 3808, "group": 3809, "ven": 3810, "utils": 3811, "prop": 3812, "exc": 3813, "len": 3814, "aut": 3815, "descri": 3816, "other": 3817, "emodel": 3818, "cy": 3819, "bool": 3820, "man": 3821, "direct": 3822, "socket": 3823, "datetime": 3824, "raises": 3825, "optional": 3826, "ary": 3827, "min": 3828, "returns": 3829, "basemodel": 3830, "address": 3831, "dir": 3832, "que": 3833, "vel": 3834, "worker": 3835, "integer": 3836, "lin": 3837, "values": 3838, "runner": 3839, "ors": 3840, "is_": 3841, "posit": 3842, "given": 3843, "ws": 3844, "validator": 3845, "stre": 3846, "annotations": 3847, "ite": 3848, "line": 3849, "ind": 3850, "jo": 3851, "else": 3852, "fut": 3853, "ron": 3854, "ide": 3855, "wait": 3856, "expression": 3857, "ence": 3858, "wn": 3859, "ange": 3860, "tes": 3861, "future": 3862, "order": 3863, "callable": 3864, "current": 3865, "ph": 3866, "bod": 3867, "match": 3868, "state": 3869, "create": 3870, "_path": 3871, "sed": 3872, "print": 3873, "handl": 3874, "tests": 3875, "uct": 3876, "fact": 3877, "ww": 3878, "implement": 3879, "ializ": 3880, "sh": 3881, "ata": 3882, "20": 3883, "lete": 3884, "fore": 3885, "support": 3886, "met": 3887, "number": 3888, "applic": 3889, "bytes": 3890, "ms": 3891, "adata": 3892, "mit": 3893, "attribute": 3894, "start": 3895, "metadata": 3896, "using": 3897, "_to": 3898, "description": 3899, "checking": 3900, "prec": 3901, "coun": 3902, "propert": 3903, "da": 3904, "work": 3905, "inclu": 3906, "per": 3907, "settings": 3908, "pool": 3909, "ions": 3910, "required": 3911, "sing": 3912, "backend": 3913, "ates": 3914, "allow": 3915, "fixtur": 3916, "pres": 3917, "application": 3918, "org": 3919, "type_checking": 3920, "host": 3921, "level": 3922, "case": 3923, "init__": 3924, "mul": 3925, "rel": 3926, "faker": 3927, "scop": 3928, "annotated": 3929, "body": 3930, "ally": 3931, "ful": 3932, "tit": 3933, "rand": 3934, "__future": 3935, "__future__": 3936, "dependen": 3937, "__init__": 3938, "called": 3939, "sum": 3940, "expected": 3941, "classes": 3942, "core_schema": 3943, "asyncio": 3944, "factory": 3945, "collections": 3946, "du": 3947, "arguments": 3948, "buil": 3949, "git": 3950, "execut": 3951, "update": 3952, "cook": 3953, "sign": 3954, "templ": 3955, "users": 3956, "await": 3957, "cap": 3958, "_pytest": 3959, "some": 3960, "vo": 3961, "manag": 3962, "last_name": 3963, "prefix": 3964, "envi": 3965, "environ": 3966, "options": 3967, "validation": 3968, "lock": 3969, "hello": 3970, "title": 3971, "enco": 3972, "join": 3973, "docs": 3974, "pla": 3975, "let": 3976, "websocket": 3977, "kip": 3978, "server": 3979, "multi": 3980, "random": 3981, "ken": 3982, "patch": 3983, "ep": 3984, "parent": 3985, "flo": 3986, "cust": 3987, "char": 3988, "af": 3989, "plug": 3990, "ail": 3991, "ss": 3992, "click": 3993, "float": 3994, "abc": 3995, "tab": 3996, "handler": 3997, "idd": 3998, "custom": 3999, "rout": 4000, "parse": 4001, "create_": 4002, "openapi": 4003, "stream": 4004, "_value": 4005, "regi": 4006, "present": 4007, "ages": 4008, "auto": 4009, "dex": 4010, "proto": 4011, "specifi": 4012, "max": 4013, "ement": 4014, "tar": 4015, "enum": 4016, "warning": 4017, "also": 4018, "py3": 4019, "clo": 4020, "mon": 4021, "contain": 4022, "root": 4023, "mapped": 4024, "property": 4025, "part": 4026, "send": 4027, "union": 4028, "123": 4029, "does": 4030, "_f": 4031, "ie": 4032, "prox": 4033, "html": 4034, "but": 4035, "datab": 4036, "ir": 4037, "ard": 4038, "az": 4039, "yo": 4040, "shot": 4041, "extra": 4042, "exit": 4043, "ative": 4044, "exist": 4045, "cle": 4046, "fixtures": 4047, "deprec": 4048, "nap": 4049, "sequ": 4050, "42": 4051, "intern": 4052, "index": 4053, "setup": 4054, "ignore": 4055, "_info": 4056, "bug": 4057, "napshot": 4058, "remo": 4059, "ense": 4060, "insp": 4061, "loop": 4062, "insert": 4063, "objects": 4064, "manager": 4065, "primar": 4066, "license": 4067, "have": 4068, "py310": 4069, "rece": 4070, "count": 4071, "construct": 4072, "database": 4073, "fil": 4074, "copy": 4075, "ypy": 4076, "need": 4077, "added": 4078, "may": 4079, "er_": 4080, "encoding": 4081, "ant": 4082, "params": 4083, "files": 4084, "cla": 4085, "parameter": 4086, "exceptions": 4087, "fields": 4088, "11": 4089, "username": 4090, "reposit": 4091, "protocol": 4092, "errors": 4093, "range": 4094, "on_": 4095, "debug": 4096, "utes": 4097, "after": 4098, "except": 4099, "node": 4100, "digit": 4101, "pers": 4102, "pan": 4103, "statement": 4104, "isinstance": 4105, "pytester": 4106, "ident": 4107, "model_": 4108, "logger": 4109, "inspect": 4110, "leng": 4111, "scope": 4112, "liter": 4113, "conf": 4114, "target": 4115, "length": 4116, "aio": 4117, "first_name": 4118, "like": 4119, "literal": 4120, "ght": 4121, "decl": 4122, "invo": 4123, "defin": 4124, "write": 4125, "cover": 4126, "mode": 4127, "msg": 4128, "bin": 4129, "constra": 4130, "constraint": 4131, "item_id": 4132, "sequence": 4133, "loc": 4134, "cond": 4135, "wo": 4136, "where": 4137, "parametr": 4138, "_engine": 4139, "reg": 4140, "down": 4141, "uni": 4142, "decor": 4143, "compi": 4144, "row": 4145, "ict": 4146, "pydantic_": 4147, "iddle": 4148, "_orm": 4149, "mapping": 4150, "attributes": 4151, "ging": 4152, "dependency": 4153, "mapper": 4154, "middle": 4155, "ale": 4156, "ware": 4157, "header": 4158, "invalid": 4159, "formats": 4160, "_t": 4161, "password": 4162, "clause": 4163, "_url": 4164, "you": 4165, "generator": 4166, "_session": 4167, "project": 4168, "read_": 4169, "_key": 4170, "mis": 4171, "emp": 4172, "cho": 4173, "obj": 4174, "ango": 4175, "ov": 4176, "mypy": 4177, "cookie": 4178, "ters": 4179, "ld": 4180, "represent": 4181, "01": 4182, "make": 4183, "execute": 4184, "dj": 4185, "tester": 4186, "im": 4187, "ved": 4188, "curs": 4189, "tim": 4190, "compat": 4191, "queue": 4192, "_b": 4193, "her": 4194, "hip": 4195, "extens": 4196, "male": 4197, "rc": 4198, "utor": 4199, "vie": 4200, "fail": 4201, "warnings": 4202, "av": 4203, "parametrize": 4204, "panel": 4205, "name__": 4206, "delete": 4207, "right": 4208, "aiohttp": 4209, "serializ": 4210, "schem": 4211, "trace": 4212, "cret": 4213, "emale": 4214, "template": 4215, "generate": 4216, "invoke": 4217, "logging": 4218, "callback": 4219, "plugin": 4220, "timeout": 4221, "utorial": 4222, "was": 4223, "ationship": 4224, "secret": 4225, "flask": 4226, "inal": 4227, "ach": 4228, "__name__": 4229, "relationship": 4230, "over": 4231, "environment": 4232, "d_": 4233, "tutorial": 4234, "ols": 4235, "close": 4236, "ify": 4237, "operation": 4238, "uid": 4239, "deci": 4240, "orig": 4241, "99": 4242, "its": 4243, "www": 4244, "locale": 4245, "importlib": 4246, "same": 4247, "install": 4248, "token": 4249, "validate_": 4250, "ak": 4251, "append": 4252, "secur": 4253, "chang": 4254, "dataclass": 4255, "to_": 4256, "amb": 4257, "assert_": 4258, "decimal": 4259, "gr": 4260, "security": 4261, "vis": 4262, "middleware": 4263, "must": 4264, "skip": 4265, "way": 4266, "ia": 4267, "utf": 4268, "place": 4269, "validationerror": 4270, "include": 4271, "packages": 4272, "lett": 4273, "typevar": 4274, "internal": 4275, "lename": 4276, "defined": 4277, "ple": 4278, "methods": 4279, "point": 4280, "gith": 4281, "github": 4282, "pyp": 4283, "overr": 4284, "limit": 4285, "default_": 4286, "deta": 4287, "tables": 4288, "link": 4289, "deprecated": 4290, "yi": 4291, "decorator": 4292, "pas": 4293, "person": 4294, "subprocess": 4295, "fe": 4296, "lob": 4297, "repr": 4298, "tern": 4299, "100": 4300, "before": 4301, "django": 4302, "snapshot": 4303, "ull": 4304, "ses": 4305, "from_": 4306, "ick": 4307, "complete": 4308, "filter": 4309, "foreign": 4310, "router": 4311, "eq": 4312, "simp": 4313, "cept": 4314, "ffer": 4315, "passed": 4316, "whe": 4317, "add_": 4318, "parameters": 4319, "yield": 4320, "_py310": 4321, "uuid": 4322, "view": 4323, "requests": 4324, "ong": 4325, "stry": 4326, "tag": 4327, "olbar": 4328, "non": 4329, "httpx": 4330, "tmp": 4331, "md": 4332, "unit": 4333, "mt": 4334, "note": 4335, "schemas": 4336, "under": 4337, "second": 4338, "proxy": 4339, "cally": 4340, "parser": 4341, "receive": 4342, "specific": 4343, "into": 4344, "moduletype": 4345, "cach": 4346, "lamb": 4347, "interfa": 4348, "ual": 4349, "equ": 4350, "50": 4351, "typed": 4352, "ional": 4353, "more": 4354, "cript": 4355, "found": 4356, "ese": 4357, "operator": 4358, "tutorial00": 4359, "vari": 4360, "pathlib": 4361, "56": 4362, "stdo": 4363, "stdout": 4364, "elements": 4365, "rag": 4366, "route": 4367, "expected_": 4368, "_file": 4369, "rele": 4370, "color": 4371, "refer": 4372, "events": 4373, "missing": 4374, "_dir": 4375, "primary_": 4376, "_expression": 4377, "pace": 4378, "ating": 4379, "_c": 4380, "ank": 4381, "_male": 4382, "pat": 4383, "diction": 4384, "authors": 4385, "map": 4386, "ctx": 4387, "resol": 4388, "wrapp": 4389, "signal": 4390, "each": 4391, "ish": 4392, "ature": 4393, "render": 4394, "regist": 4395, "defaults": 4396, "loader": 4397, "lambda": 4398, "tasks": 4399, "postg": 4400, "postgres": 4401, "access": 4402, "configure": 4403, "lines": 4404, "email": 4405, "detail": 4406, "_female": 4407, "company": 4408, "pe": 4409, "norm": 4410, "_app": 4411, "multiple": 4412, "unk": 4413, "conv": 4414, "ible": 4415, "declar": 4416, "ty": 4417, "exit_code": 4418, "sport": 4419, "usage": 4420, "versionadded": 4421, "without": 4422, "pattern": 4423, "produ": 4424, "stem": 4425, "repository": 4426, "responses": 4427, "dump": 4428, "primary_key": 4429, "sl": 4430, "block": 4431, "postgresql": 4432, "flag": 4433, "mysql": 4434, "null": 4435, "termin": 4436, "directory": 4437, "go": 4438, "ically": 4439, "thread": 4440, "fr": 4441, "hook": 4442, "ja": 4443, "eq_": 4444, "erializ": 4445, "_formats": 4446, "strict": 4447, "_st": 4448, "pick": 4449, "transport": 4450, "avail": 4451, "iterable": 4452, "hash": 4453, "adap": 4454, "keyword": 4455, "here": 4456, "change": 4457, "issu": 4458, "plat": 4459, "capture": 4460, "keys": 4461, "dictionary": 4462, "starlett": 4463, "starlette": 4464, "abstr": 4465, "bl": 4466, "indi": 4467, "mut": 4468, "dur": 4469, "columns": 4470, "abstract": 4471, "bound": 4472, "foreignkey": 4473, "world": 4474, "cs": 4475, "bro": 4476, "bind": 4477, "results": 4478, "super": 4479, "_module": 4480, "available": 4481, "correct": 4482, "prag": 4483, "ized": 4484, "accept": 4485, "glob": 4486, "0000": 4487, "price": 4488, "simple": 4489, "configur": 4490, "saction": 4491, "named": 4492, "ents": 4493, "returned": 4494, "executable": 4495, "with_": 4496, "full": 4497, "202": 4498, "ules": 4499, "annotation": 4500, "mi": 4501, "lif": 4502, "leg": 4503, "_names": 4504, "generic": 4505, "13": 4506, "tax": 4507, "ill": 4508, "_str": 4509, "transaction": 4510, "based": 4511, "iterator": 4512, "convert": 4513, "toml": 4514, "ibut": 4515, "basic": 4516, "platform": 4517, "cast": 4518, "beha": 4519, "amples": 4520, "declarative": 4521, "mem": 4522, "contr": 4523, "gre": 4524, "pay": 4525, "paths": 4526, "cred": 4527, "register": 4528, "cate": 4529, "providers": 4530, "suc": 4531, "etch": 4532, "ffix": 4533, "dialects": 4534, "find": 4535, "_src": 4536, "apply": 4537, "visit": 4538, "sample": 4539, "br": 4540, "now": 4541, "report": 4542, "_output": 4543, "arch": 4544, "depends": 4545, "dbapi": 4546, "ted": 4547, "such": 4548, "docs_src": 4549, "formation": 4550, "pub": 4551, "within": 4552, "pragma": 4553, "charact": 4554, "ensure": 4555, "dataclasses": 4556, "ear": 4557, "information": 4558, "behavi": 4559, "differ": 4560, "document": 4561, "instead": 4562, "dri": 4563, "build": 4564, "ype": 4565, "30": 4566, "there": 4567, "syn": 4568, "normal": 4569, "collect": 4570, "cert": 4571, "amil": 4572, "_version": 4573, "classmethod": 4574, "implementation": 4575, "needs_": 4576, "enable": 4577, "generated": 4578, "extensions": 4579, "arra": 4580, "fetch": 4581, "clirunner": 4582, "cr": 4583, "issues": 4584, "noq": 4585, "noqa": 4586, "set_": 4587, "override": 4588, "nest": 4589, "compiled": 4590, "schemavalidator": 4591, "iss": 4592, "_model": 4593, "bit": 4594, "than": 4595, "ous": 4596, "compon": 4597, "_message": 4598, "_types": 4599, "cause": 4600, "keyp": 4601, "_regi": 4602, "ories": 4603, "compil": 4604, "exists": 4605, "functions": 4606, "wrap": 4607, "pop": 4608, "ases": 4609, "two": 4610, "scal": 4611, "mapped_": 4612, "raw": 4613, "valueerror": 4614, "repo": 4615, "empty": 4616, "complet": 4617, "monkeyp": 4618, "monkeypatch": 4619, "static": 4620, "dist": 4621, "no_": 4622, "success": 4623, "plain": 4624, "created": 4625, "modi": 4626, "ince": 4627, "cursor": 4628, "configuration": 4629, "ell": 4630, "licit": 4631, "whether": 4632, "encode": 4633, "lang": 4634, "digits": 4635, "net": 4636, "array": 4637, "page": 4638, "street": 4639, "input_value": 4640, "term": 4641, "dependenc": 4642, "lab": 4643, "uses": 4644, "meta": 4645, "vid": 4646, "v1": 4647, "fn": 4648, "ential": 4649, "payload": 4650, "win": 4651, "unittest": 4652, "issue": 4653, "ush": 4654, "author": 4655, "then": 4656, "ki": 4657, "during": 4658, "changed": 4659, "inline": 4660, "legac": 4661, "writ": 4662, "contro": 4663, "max_": 4664, "size": 4665, "cheme": 4666, "ben": 4667, "single": 4668, "ash": 4669, "stmt": 4670, "ree": 4671, "in_": 4672, "remove": 4673, "ole": 4674, "disable": 4675, "components": 4676, "ordered": 4677, "global": 4678, "chil": 4679, "sqlite": 4680, "entity": 4681, "14": 4682, "provi": 4683, "provided": 4684, "cookies": 4685, "yle": 4686, "driver": 4687, "pickle": 4688, "runtime": 4689, "current_": 4690, "chunk": 4691, "system": 4692, "fol": 4693, "wise": 4694, "oci": 4695, "pydantic_core": 4696, "traceback": 4697, "_data": 4698, "fake": 4699, "behavior": 4700, "_so": 4701, "ables": 4702, "associ": 4703, "zone": 4704, "many": 4705, "echo": 4706, "replace": 4707, "_number": 4708, "ing_": 4709, "store": 4710, "identity": 4711, "en_": 4712, "day": 4713, "_toolbar": 4714, "_class": 4715, "entr": 4716, "subclass": 4717, "bank": 4718, "compile": 4719, "ready": 4720, "recor": 4721, "unique": 4722, "ts": 4723, "si": 4724, "seealso": 4725, "authent": 4726, "authentic": 4727, "ason": 4728, "container": 4729, "_request": 4730, "numer": 4731, "label": 4732, "_alias": 4733, "froz": 4734, "ds": 4735, "_by": 4736, "urces": 4737, "parti": 4738, "jin": 4739, "consum": 4740, "std": 4741, "supported": 4742, "ves": 4743, "exclu": 4744, "78": 4745, "signature": 4746, "64": 4747, "assert_type": 4748, "commit": 4749, "mapped_column": 4750, "filename": 4751, "ular": 4752, "_table": 4753, "__file": 4754, "__file__": 4755, "ility": 4756, "via": 4757, "requires": 4758, "quest": 4759, "pytest_": 4760, "mer": 4761, "jinja": 4762, "poly": 4763, "next": 4764, "erializer": 4765, "wiki": 4766, "ually": 4767, "modules": 4768, "camil": 4769, "addresses": 4770, "specified": 4771, "namespace": 4772, "mocker": 4773, "orac": 4774, "helpers": 4775, "don": 4776, "setting": 4777, "common": 4778, "compar": 4779, "camila": 4780, "raised": 4781, "both": 4782, "la": 4783, "ways": 4784, "parse_": 4785, "addit": 4786, "they": 4787, "definit": 4788, "_su": 4789, "_sql": 4790, "sent": 4791, "main__": 4792, "interfaces": 4793, "plit": 4794, "ures": 4795, "partial": 4796, "scalar": 4797, "funct": 4798, "child": 4799, "dd": 4800, "mor": 4801, "frozen": 4802, "ugh": 4803, "__main__": 4804, "well": 4805, "typing_": 4806, "edia": 4807, "16": 4808, "city": 4809, "writer": 4810, "messages": 4811, "configured": 4812, "wikip": 4813, "wikipedia": 4814, "lish": 4815, "final": 4816, "coverage": 4817, "cons": 4818, "ft": 4819, "_context": 4820, "show": 4821, "_asyncio": 4822, "boole": 4823, "boolean": 4824, "lower": 4825, "_cache": 4826, "ight": 4827, "first_name_male": 4828, "and_": 4829, "calls": 4830, "ialize": 4831, "1234": 4832, "nodes": 4833, "bers": 4834, "functo": 4835, "binary": 4836, "mary": 4837, "autom": 4838, "first_name_female": 4839, "chain": 4840, "ance": 4841, "_a": 4842, "40": 4843, "_list": 4844, "commands": 4845, "different": 4846, "ical": 4847, "credential": 4848, "delta": 4849, "functools": 4850, "elif": 4851, "control": 4852, "pypro": 4853, "pyproject": 4854, "aga": 4855, "random_": 4856, "decode": 4857, "lat": 4858, "registry": 4859, "fin": 4860, "vok": 4861, "priv": 4862, "erequest": 4863, "equal": 4864, "side": 4865, "gu": 4866, "dispatch": 4867, "primary": 4868, "ordereddict": 4869, "sole": 4870, "against": 4871, "execution": 4872, "mix": 4873, "would": 4874, "step": 4875, "completion": 4876, "summary": 4877, "been": 4878, "_prefix": 4879, "supports": 4880, "reason": 4881, "ipv": 4882, "bench": 4883, "original": 4884, "successful": 4885, "these": 4886, "plac": 4887, "tho": 4888, "handle": 4889, "ffect": 4890, "corn": 4891, "always": 4892, "conftest": 4893, "search": 4894, "validate": 4895, "plugins": 4896, "eu": 4897, "redirect": 4898, "look": 4899, "run_": 4900, "_error": 4901, "just": 4902, "play": 4903, "curren": 4904, "split": 4905, "ied": 4906, "pk": 4907, "getattr": 4908, "tools": 4909, "ord": 4910, "inher": 4911, "recei": 4912, "lex": 4913, "being": 4914, "strings": 4915, "script": 4916, "_suffix": 4917, "month": 4918, "once": 4919, "_to_": 4920, "since": 4921, "_factory": 4922, "off": 4923, "worker_": 4924, "tmp_path": 4925, "422": 4926, "long": 4927, "__all": 4928, "__all__": 4929, "stor": 4930, "nown": 4931, "starts": 4932, "explicit": 4933, "consumer": 4934, "oracle": 4935, "inline_s": 4936, "inline_snapshot": 4937, "import_module": 4938, "console": 4939, "stamp": 4940, "timedelta": 4941, "validate_python": 4942, "otherwise": 4943, "setup_": 4944, "dependencies": 4945, "benchmark": 4946, "modifi": 4947, "ities": 4948, "ans": 4949, "utdown": 4950, "rows": 4951, "doesn": 4952, "laz": 4953, "ased": 4954, "copyright": 4955, "ssl": 4956, "task_": 4957, "want": 4958, "hist": 4959, "while": 4960, "t_": 4961, "tablename": 4962, "oauth": 4963, "ization": 4964, "scheme": 4965, "iled": 4966, "works": 4967, "blue": 4968, "expect_": 4969, "wid": 4970, "nested": 4971, "old": 4972, "exc_info": 4973, "000": 4974, "_pl": 4975, "wrapper": 4976, "deprecation": 4977, "constraints": 4978, "contribut": 4979, "pypi": 4980, "extension": 4981, "most": 4982, "force": 4983, "seconds": 4984, "assign": 4985, "timezone": 4986, "kom": 4987, "ared": 4988, "bad": 4989, "kes": 4990, "80": 4991, "card": 4992, "ibility": 4993, "sig": 4994, "additional": 4995, "not_": 4996, "domain": 4997, "_ser": 4998, "class_": 4999, "sess": 5000, "expi": 5001, "rop": 5002, "php": 5003, "escap": 5004, "green": 5005, "stand": 5006, "adapter": 5007, "mutable": 5008, "instr": 5009, "already": 5010, "clean": 5011, "19": 5012, "ision": 5013, "ched": 5014, "_for": 5015, "contributors": 5016, "ei": 5017, "kombu": 5018, "inherit": 5019, "foob": 5020, "foobar": 5021, "needs_py310": 5022, "stack": 5023, "appli": 5024, "tal": 5025, "credentials": 5026, "origin": 5027, "them": 5028, "baz": 5029, "debug_toolbar": 5030, "cleo": 5031, "_config": 5032, "impl": 5033, "directly": 5034, "serialization": 5035, "_r": 5036, "tags": 5037, "aph": 5038, "sync": 5039, "aded": 5040, "ced": 5041, "inner": 5042, "_text": 5043, "style": 5044, "polymor": 5045, "polymorph": 5046, "existing": 5047, "tive": 5048, "contextlib": 5049, "flush": 5050, "built": 5051, "uvi": 5052, "uvicorn": 5053, "_registry": 5054, "very": 5055, "loads": 5056, "how": 5057, "struct": 5058, "automat": 5059, "follow": 5060, "released": 5061, "hell": 5062, "to_python": 5063, "configdict": 5064, "codes": 5065, "async_": 5066, "section": 5067, "hi": 5068, "_with": 5069, "less": 5070, "legacy": 5071, "identifi": 5072, "capture_output": 5073, "_typing": 5074, "oc": 5075, "automo": 5076, "selectable": 5077, "thing": 5078, "failed": 5079, "fixturerequest": 5080, "test_s": 5081, "instances": 5082, "ivel": 5083, "ively": 5084, "ze": 5085, "twe": 5086, "sol": 5087, "_args": 5088, "licens": 5089, "licenses": 5090, "safe": 5091, "site": 5092, "medi": 5093, "ay": 5094, "32": 5095, "properties": 5096, "2026": 5097, "openapi_schema": 5098, "undefined": 5099, "returning": 5100, "incre": 5101, "private": 5102, "compiler": 5103, "because": 5104, "ice": 5105, "opensource": 5106, "models": 5107, "cases": 5108, "operationid": 5109, "polymorphic": 5110, "windo": 5111, "endpoint": 5112, "asgi": 5113, "rich": 5114, "15": 5115, "instal": 5116, "resolve": 5117, "use_": 5118, "public": 5119, "hn": 5120, "_count": 5121, "ima": 5122, "ow": 5123, "betwe": 5124, "between": 5125, "runn": 5126, "retry": 5127, "installed": 5128, "automotive": 5129, "clear": 5130, "emit": 5131, "as_": 5132, "euro": 5133, "_validator": 5134, "sort": 5135, "drop": 5136, "check_": 5137, "version_info": 5138, "tear": 5139, "contains": 5140, "mock_": 5141, "unicode": 5142, "commandtester": 5143, "ddl": 5144, "_of": 5145, "examples": 5146, "compatibility": 5147, "separ": 5148, "classvar": 5149, "prepa": 5150, "exclude": 5151, "instrument": 5152, "raises_message": 5153, "2005": 5154, "test_openapi_schema": 5155, "lazy": 5156, "jinja2": 5157, "create_engine": 5158, "contin": 5159, "zip": 5160, "hostname": 5161, "provide": 5162, "either": 5163, "comment": 5164, "increment": 5165, "reset": 5166, "still": 5167, "typing_extensions": 5168, "verify": 5169, "broker": 5170, "produce": 5171, "importerror": 5172, "quot": 5173, "bre": 5174, "marks": 5175, "terminal": 5176, "_size": 5177, "history": 5178, "24": 5179, "startswith": 5180, "my_": 5181, "even": 5182, "about": 5183, "repositories": 5184, "enabled": 5185, "operations": 5186, "effect": 5187, "60": 5188, "gest": 5189, "rovid": 5190, "rovider": 5191, "implemented": 5192, "require": 5193, "checksum": 5194, "templates": 5195, "__tablename": 5196, "__tablename__": 5197, "_base": 5198, "cation": 5199, "stop": 5200, "random_element": 5201, "defs": 5202, "special": 5203, "55": 5204, "ped": 5205, "versionchanged": 5206, "oauth2": 5207, "hero": 5208, "typeddict": 5209, "characters": 5210, "sources": 5211, "dev": 5212, "strip": 5213, "untyped": 5214, "replac": 5215, "correctly": 5216, "demo": 5217, "return_value": 5218, "thro": 5219, "18": 5220, "ving": 5221, "det": 5222, "beat": 5223, "teardown": 5224, "gic": 5225, "dyn": 5226, "listen": 5227, "define": 5228, "_env": 5229, "creating": 5230, "numeric": 5231, "_sh": 5232, "celery_": 5233, "toolbar": 5234, "baseprovider": 5235, "top": 5236, "including": 5237, "_state": 5238, "transl": 5239, "provides": 5240, "states": 5241, "numbers": 5242, "http_": 5243, "related": 5244, "real": 5245, "appro": 5246, "asyncsession": 5247, "_content": 5248, "frame": 5249, "entry": 5250, "serializer": 5251, "voked": 5252, "width": 5253, "vat": 5254, "backends": 5255, "functional": 5256, "or_": 5257, "prior": 5258, "referen": 5259, "interface": 5260, "compatible": 5261, "automatically": 5262, "wsgi": 5263, "documentation": 5264, "sets": 5265, "blueprint": 5266, "beg": 5267, "ids": 5268, "odb": 5269, "mappers": 5270, "_all": 5271, "opt": 5272, "equi": 5273, "ten": 5274, "tries": 5275, "defer": 5276, "cannot": 5277, "quer": 5278, "py_": 5279, "ru": 5280, "parsing": 5281, "release": 5282, "updat": 5283, "variable": 5284, "removed": 5285, "ues": 5286, "evalu": 5287, "_query": 5288, "trans": 5289, "graph": 5290, "matches": 5291, "through": 5292, "proxied": 5293, "rv": 5294, "network": 5295, "prog": 5296, "bear": 5297, "ini": 5298, "equival": 5299, "_settings": 5300, "c1": 5301, "includes": 5302, "5678": 5303, "verbo": 5304, "stderr": 5305, "condit": 5306, "sqltypes": 5307, "maybe": 5308, "ttings": 5309, "mult": 5310, "httpexception": 5311, "total": 5312, "location": 5313, "cket": 5314, "delet": 5315, "exchange": 5316, "assertions": 5317, "standard": 5318, "perform": 5319, "forwar": 5320, "shell": 5321, "sitive": 5322, "cached": 5323, "getter": 5324, "reference": 5325, "cores": 5326, "typeerror": 5327, "timer": 5328, "rary": 5329, "weak": 5330, "equivalent": 5331, "upload": 5332, "verse": 5333, "eno": 5334, "strate": 5335, "xt": 5336, "reflect": 5337, "bn": 5338, "__pydantic_": 5339, "multid": 5340, "multidict": 5341, "gt": 5342, "cython": 5343, "22": 5344, "words": 5345, "ba": 5346, "job": 5347, "upper": 5348, "ssn": 5349, "wheel": 5350, "overload": 5351, "has_": 5352, "const": 5353, "pend": 5354, "dt": 5355, "basese": 5356, "fer": 5357, "_format": 5358, "actual": 5359, "fg": 5360, "expr": 5361, "what": 5362, "record": 5363, "building": 5364, "digest": 5365, "txt": 5366, "character": 5367, "_source": 5368, "loy": 5369, "basesettings": 5370, "schemaserializer": 5371, "itself": 5372, "med": 5373, "loaded": 5374, "poss": 5375, "counter": 5376, "venv": 5377, "left": 5378, "initial": 5379, "definition": 5380, "correspon": 5381, "90": 5382, "settingssource": 5383, "free": 5384, "bearer": 5385, "cat": 5386, "ee": 5387, "pg": 5388, "closed": 5389, "_options": 5390, "tz": 5391, "module_name": 5392, "idden": 5393, "sim": 5394, "call__": 5395, "changes": 5396, "generates": 5397, "uch": 5398, "queues": 5399, "_items": 5400, "_length": 5401, "401": 5402, "ret": 5403, "compiledsql": 5404, "_connection": 5405, "langu": 5406, "attemp": 5407, "_string": 5408, "02": 5409, "columnelement": 5410, "merge": 5411, "positional": 5412, "active": 5413, "groups": 5414, "_get_": 5415, "mssql": 5416, "coer": 5417, "rf": 5418, "cul": 5419, "dest": 5420, "__call__": 5421, "action": 5422, "_token": 5423, "allow_": 5424, "interval": 5425, "europe": 5426, "user_id": 5427, "their": 5428, "allows": 5429, "reso": 5430, "ng": 5431, "partic": 5432, "runtimeerror": 5433, "detect": 5434, "contextmanager": 5435, "versions": 5436, "ended": 5437, "deprecationwarning": 5438, "those": 5439, "sure": 5440, "_with_": 5441, "_from_": 5442, "__dict": 5443, "__dict__": 5444, "_package": 5445, "tutorial001": 5446, "operators": 5447, "ting": 5448, "tio": 5449, "windows": 5450, "leep": 5451, "_an": 5452, "jsonresponse": 5453, "formats_": 5454, "etc": 5455, "wer": 5456, "timest": 5457, "timestamp": 5458, "ns": 5459, "short": 5460, "isol": 5461, "_process": 5462, "hig": 5463, "image": 5464, "num_s": 5465, "currently": 5466, "track": 5467, "__version": 5468, "__version__": 5469, "dumps": 5470, "round": 5471, "sw": 5472, "priority": 5473, "currency": 5474, "ation_": 5475, "expressions": 5476, "byte": 5477, "escape": 5478, "cing": 5479, "vious": 5480, "test_script": 5481, "calling": 5482, "alf": 5483, "installer": 5484, "useful": 5485, "indic": 5486, "calcul": 5487, "eded": 5488, "loading": 5489, "gc": 5490, "another": 5491, "running": 5492, "pag": 5493, "66": 5494, "bul": 5495, "_no": 5496, "rest": 5497, "assertion": 5498, "35": 5499, "beh": 5500, "_dict": 5501, "mixin": 5502, "_internal": 5503, "chron": 5504, "avo": 5505, "ignor": 5506, "rt": 5507, "assert_called": 5508, "17": 5509, "particular": 5510, "num_samples": 5511, "model_config": 5512, "slo": 5513, "_handler": 5514, "_is_": 5515, "tuples": 5516, "_sub": 5517, "49": 5518, "_test": 5519, "generate_": 5520, "forb": 5521, "body_": 5522, "multipart": 5523, "keep": 5524, "localhost": 5525, "v2": 5526, "_sign": 5527, "compo": 5528, "clos": 5529, "indent": 5530, "extract": 5531, "lying": 5532, "helper": 5533, "ler": 5534, "cached_": 5535, "vice": 5536, "previous": 5537, "complex": 5538, "visitor": 5539, "dr": 5540, "dynam": 5541, "persist": 5542, "ypo": 5543, "coreschema": 5544, "applied": 5545, "could": 5546, "xx": 5547, "cessed": 5548, "subclasses": 5549, "ern": 5550, "ony": 5551, "serialize": 5552, "representation": 5553, "employ": 5554, "delay": 5555, "buffer": 5556, "ipv4": 5557, "registered": 5558, "_complete": 5559, "john": 5560, "_no_": 5561, "req": 5562, "language": 5563, "asci": 5564, "ascii": 5565, "_m": 5566, "bases": 5567, "sleep": 5568, "lar": 5569, "na": 5570, "impro": 5571, "44": 5572, "psy": 5573, "native": 5574, "make_": 5575, "allowed": 5576, "namedtuple": 5577, "modified": 5578, "begin": 5579, "current_user": 5580, "int_schema": 5581, "_exc": 5582, "mb": 5583, "prepare": 5584, "combin": 5585, "recurs": 5586, "05": 5587, "howe": 5588, "however": 5589, "distr": 5590, "pep": 5591, "psycop": 5592, "psycopg": 5593, "inputs": 5594, "asserts": 5595, "anch": 5596, "update_": 5597, "authorization": 5598, "alp": 5599, "_json": 5600, "virt": 5601, "aliased": 5602, "processing": 5603, "jar": 5604, "inel": 5605, "gra": 5606, "cent": 5607, "connections": 5608, "shutdown": 5609, "igr": 5610, "ui": 5611, "get_client": 5612, "dml": 5613, "cp": 5614, "memory": 5615, "ground": 5616, "_un": 5617, "iv": 5618, "packag": 5619, "underlying": 5620, "takes": 5621, "_result": 5622, "virtual": 5623, "simil": 5624, "similar": 5625, "23": 5626, "syntax": 5627, "marker": 5628, "kind": 5629, "account": 5630, "utc": 5631, "year": 5632, "_lines": 5633, "ed_session": 5634, "fixture_session": 5635, "continue": 5636, "_bytes": 5637, "your": 5638, "failure": 5639, "structure": 5640, "personprovider": 5641, "discri": 5642, "discrimin": 5643, "stash": 5644, "prev": 5645, "threading": 5646, "ensitive": 5647, "distribut": 5648, "signals": 5649, "admin": 5650, "marsh": 5651, "26": 5652, "remote": 5653, "_time": 5654, "ments": 5655, "formatter": 5656, "background": 5657, "criter": 5658, "associated": 5659, "_column": 5660, "to_json": 5661, "break": 5662, "identifier": 5663, "nullable": 5664, "panels": 5665, "_fixtures": 5666, "_response": 5667, "connector": 5668, "build_": 5669, "handlers": 5670, "hear": 5671, "heart": 5672, "abort": 5673, "inspection": 5674, "land": 5675, "src": 5676, "encoder": 5677, "represents": 5678, "til": 5679, "shared": 5680, "_param": 5681, "were": 5682, "spa": 5683, "possible": 5684, "03": 5685, "deferred": 5686, "female": 5687, "agent": 5688, "contrib": 5689, "finally": 5690, "variables": 5691, "autoincrement": 5692, "behalf": 5693, "_headers": 5694, "ution": 5695, "avoid": 5696, "maker": 5697, "88": 5698, "deep": 5699, "eag": 5700, "ان": 5701, "declarativebase": 5702, "assertscompiledsql": 5703, "ices": 5704, "creates": 5705, "pid": 5706, "phone": 5707, "read_items": 5708, "marshmal": 5709, "marshmallow": 5710, "atype": 5711, "ian": 5712, "_client": 5713, "following": 5714, "save": 5715, "progress": 5716, "_group": 5717, "improper": 5718, "improperly": 5719, "a1": 5720, "yprovider": 5721, "deli": 5722, "joined": 5723, "mockerfixture": 5724, "atively": 5725, "greenlet": 5726, "70": 5727, "bir": 5728, "license_pl": 5729, "response_model": 5730, "urllib": 5731, "until": 5732, "testcase": 5733, "forward": 5734, "times": 5735, "tempor": 5736, "ire": 5737, "area": 5738, "fieldinfo": 5739, "_field": 5740, "items_": 5741, "subquery": 5742, "sched": 5743, "mk": 5744, "improperlyconfigured": 5745, "__get": 5746, "iso": 5747, "invoked": 5748, "ban": 5749, "pet": 5750, "_header": 5751, "ty_": 5752, "compress": 5753, "generation": 5754, "workers": 5755, "catch": 5756, "every": 5757, "exact": 5758, "_repr": 5759, "phon": 5760, "pec": 5761, "specify": 5762, "proper": 5763, "general": 5764, "mething": 5765, "12345678": 5766, "ately": 5767, "hy": 5768, "comput": 5769, "iad": 5770, "_address": 5771, "position": 5772, "login": 5773, "alpha": 5774, "started": 5775, "resh": 5776, "handles": 5777, "t1": 5778, "_property": 5779, "validators": 5780, "typically": 5781, "owner": 5782, "discriminator": 5783, "_only": 5784, "post_": 5785, "notimplemented": 5786, "reader": 5787, "_server": 5788, "ek": 5789, "routing": 5790, "gram": 5791, "seed": 5792, "ean": 5793, "company_suffix": 5794, "rep": 5795, "itertools": 5796, "ends": 5797, "our": 5798, "new_": 5799, "extr": 5800, "brid": 5801, "_an_py310": 5802, "authentication": 5803, "hasattr": 5804, "known": 5805, "popul": 5806, "handling": 5807, "containing": 5808, "_col": 5809, "supp": 5810, "pip": 5811, "resolver": 5812, "imum": 5813, "unknown": 5814, "inx": 5815, "outer": 5816, "large": 5817, "suffix": 5818, "ero": 5819, "display": 5820, "program": 5821, "yam": 5822, "integr": 5823, "profile": 5824, "mariad": 5825, "disconnect": 5826, "ws_": 5827, "comes": 5828, "dup": 5829, "ared_": 5830, "odbc": 5831, "_tables": 5832, "istr": 5833, "dum": 5834, "lookup": 5835, "keyerror": 5836, "jsonschema": 5837, "ystem": 5838, "fixed": 5839, "take": 5840, "test_client": 5841, "packaging": 5842, "_python": 5843, "eval": 5844, "yaml": 5845, "say": 5846, "mariadb": 5847, "estate": 5848, "pair": 5849, "cleanup": 5850, "flow": 5851, "500": 5852, "details": 5853, "consid": 5854, "disabled": 5855, "eager": 5856, "_cls": 5857, "definitions": 5858, "instrumentation": 5859, "phonenum": 5860, "phonenumber": 5861, "07": 5862, "rfc": 5863, "fy": 5864, "cmd": 5865, "file_path": 5866, "asyncresult": 5867, "hybrid": 5868, "_default": 5869, "weight": 5870, "birth": 5871, "association": 5872, "means": 5873, "_async": 5874, "_on_": 5875, "regression": 5876, "internet": 5877, "preced": 5878, "agger": 5879, "order_by": 5880, "awaitable": 5881, "za": 5882, "library": 5883, "08": 5884, "weakref": 5885, "ines": 5886, "1000": 5887, "remain": 5888, "included": 5889, "representing": 5890, "registr": 5891, "lt": 5892, "_serializer": 5893, "86": 5894, "descript": 5895, "phonenumberprovider": 5896, "apirouter": 5897, "assert_raises_message": 5898, "varchar": 5899, "notimplementederror": 5900, "content_type": 5901, "confli": 5902, "conflict": 5903, "choices": 5904, "_router": 5905, "attrs": 5906, "blob": 5907, "handled": 5908, "retr": 5909, "456": 5910, "first_names": 5911, "etio": 5912, "_loop": 5913, "certifi": 5914, "gy": 5915, "frozenset": 5916, "offset": 5917, "wd": 5918, "fails": 5919, "roll": 5920, "country": 5921, "compan": 5922, "from_attributes": 5923, "hint": 5924, "slots": 5925, "trac": 5926, "routes": 5927, "determ": 5928, "determine": 5929, "chan": 5930, "secrets": 5931, "overrid": 5932, "concurrency": 5933, "promp": 5934, "tutorial001_py310": 5935, "sha": 5936, "heartbeat": 5937, "he": 5938, "parts": 5939, "unpack": 5940, "prod": 5941, "warns": 5942, "bed": 5943, "propag": 5944, "usually": 5945, "aliases": 5946, "statements": 5947, "lor": 5948, "_scop": 5949, "entities": 5950, "ping": 5951, "nel": 5952, "ignored": 5953, "relative": 5954, "33": 5955, "chord": 5956, "clauseelement": 5957, "occur": 5958, "__repr": 5959, "globals": 5960, "_callback": 5961, "pur": 5962, "ged": 5963, "og": 5964, "doct": 5965, "fully": 5966, "high": 5967, "inside": 5968, "ring": 5969, "_pool": 5970, "stats": 5971, "corresponding": 5972, "uploadfile": 5973, "class_bases": 5974, "writing": 5975, "attributeerror": 5976, "something": 5977, "car": 5978, "rather": 5979, "_imp": 5980, "sourcecode": 5981, "socketio": 5982, "preser": 5983, "_2": 5984, "eres": 5985, "lip": 5986, "mat": 5987, "doe": 5988, "home": 5989, "travers": 5990, "env_": 5991, "mymodel": 5992, "ori": 5993, "_utils": 5994, "needed": 5995, "fall": 5996, "ipv6": 5997, "_func": 5998, "nore": 5999, "tb": 6000, "typeadapter": 6001, "cached_property": 6002, "36": 6003, "redis": 6004, "clus": 6005, "traverse": 6006, "prefixes": 6007, "stype": 6008, "ffff": 6009, "engineer": 6010, "json_schema": 6011, "scopes": 6012, "mapper_registry": 6013, "eventloop": 6014, "25": 6015, "ote": 6016, "_get": 6017, "temporary": 6018, "skipped": 6019, "later": 6020, "explicitly": 6021, "_1": 6022, "san": 6023, "categ": 6024, "decorators": 6025, "04": 6026, "addressprovider": 6027, "pository": 6028, "fromclause": 6029, "_repo": 6030, "cpython": 6031, "__slots": 6032, "__slots__": 6033, "baseexception": 6034, "_timeout": 6035, "tool": 6036, "initializ": 6037, "doub": 6038, "_task": 6039, "nec": 6040, "extras": 6041, "smo": 6042, "legacy_": 6043, "lu": 6044, "_arg": 6045, "provision": 6046, "peop": 6047, "credit": 6048, "rootmodel": 6049, "class__": 6050, "noreturn": 6051, "prob": 6052, "sm": 6053, "magic": 6054, "97": 6055, "estab": 6056, "establish": 6057, "hooks": 6058, "steps": 6059, "executed": 6060, "distribution": 6061, "werk": 6062, "werkze": 6063, "werkzeug": 6064, "app_": 6065, "_level": 6066, "role": 6067, "constructor": 6068, "dra": 6069, "assignment": 6070, "__repr__": 6071, "quoted": 6072, "never": 6073, "encoded": 6074, "regular": 6075, "dynamic": 6076, "written": 6077, "necess": 6078, "functionality": 6079, "precedence": 6080, "prompt": 6081, "postcode": 6082, "lifes": 6083, "lifespan": 6084, "httpvalidationerror": 6085, "playw": 6086, "playwright": 6087, "virtualenv": 6088, "127": 6089, "chronous": 6090, "refresh": 6091, "_in": 6092, "rm": 6093, "consider": 6094, "people": 6095, "ed_dict": 6096, "testbase": 6097, "defaultdict": 6098, "quote": 6099, "400": 6100, "urls": 6101, "indicate": 6102, "ename": 6103, "amq": 6104, "comparable": 6105, "verbose": 6106, "tutorial002": 6107, "cancel": 6108, "appropri": 6109, "_signal": 6110, "duplic": 6111, "individ": 6112, "precision": 6113, "visitors": 6114, "building_number": 6115, "deque": 6116, "double": 6117, "read_text": 6118, "pending": 6119, "vars": 6120, "suite": 6121, "consu": 6122, "setattr": 6123, "_n": 6124, "choice": 6125, "desc": 6126, "inheritance": 6127, "09": 6128, "lastname": 6129, "py_and_": 6130, "py_and_json": 6131, "synony": 6132, "done": 6133, "wards": 6134, "before_": 6135, "unexpected": 6136, "clust": 6137, "de_": 6138, "lorem": 6139, "87": 6140, "_backend": 6141, "condition": 6142, "mex": 6143, "sph": 6144, "sphinx": 6145, "abo": 6146, "pypy": 6147, "parsed": 6148, "agg": 6149, "reload": 6150, "ik": 6151, "cas": 6152, "typealias": 6153, "model_name": 6154, "test_needs_": 6155, "todo": 6156, "dispatcher": 6157, "links": 6158, "tzinfo": 6159, "c3": 6160, "06": 6161, "celery_setup": 6162, "lineno": 6163, "markup": 6164, "async_engine": 6165, "test_client_factory": 6166, "hol": 6167, "wrapped": 6168, "sec": 6169, "serialized": 6170, "_port": 6171, "resource": 6172, "due": 6173, "azure": 6174, "bs": 6175, "stored": 6176, "day_": 6177, "ypar": 6178, "startup": 6179, "websockets": 6180, "37": 6181, "small": 6182, "criteria": 6183, "amqp": 6184, "c2": 6185, "coll": 6186, "sex": 6187, "mutation": 6188, "input_type": 6189, "doctest": 6190, "pkg": 6191, "sentinel": 6192, "wraps": 6193, "pon": 6194, "properly": 6195, "product": 6196, "feature": 6197, "saf": 6198, "ink": 6199, "boot": 6200, "loaders": 6201, "bi": 6202, "model_dump": 6203, "cz": 6204, "kwargsmodel": 6205, "cookiejar": 6206, "ross": 6207, "asyn": 6208, "received": 6209, "0x": 6210, "_shutdown": 6211, "seq": 6212, "001": 6213, "uri": 6214, "maint": 6215, "around": 6216, "adding": 6217, "cluster": 6218, "category": 6219, "span": 6220, "datatype": 6221, "relationships": 6222, "eratively": 6223, "cimultidict": 6224, "lon": 6225, "48": 6226, "might": 6227, "appropriate": 6228, "_cert": 6229, "above": 6230, "views": 6231, "imports": 6232, "indicates": 6233, "installation": 6234, "trust": 6235, "ious": 6236, "defines": 6237, "directories": 6238, "ana": 6239, "map_imp": 6240, "map_imperatively": 6241, "thand": 6242, "checks": 6243, "interpre": 6244, "path_": 6245, "_packages": 6246, "atta": 6247, "29": 6248, "ender": 6249, "ained": 6250, "igration": 6251, "first_": 6252, "template_": 6253, "f0": 6254, "expect_raises_message": 6255, "_p": 6256, "96": 6257, "various": 6258, "tmpl": 6259, "ived": 6260, "publish": 6261, "mains": 6262, "determin": 6263, "trun": 6264, "_function": 6265, "21": 6266, "queries": 6267, "2022": 6268, "portal": 6269, "street_name": 6270, "bus": 6271, "arti": 6272, "item_": 6273, "bitstring": 6274, "locals": 6275, "_sent": 6276, "sep": 6277, "pull": 6278, "storage": 6279, "needs": 6280, "_on": 6281, "service": 6282, "_body": 6283, "logic": 6284, "b1": 6285, "python_": 6286, "task_id": 6287, "individual": 6288, "integration": 6289, "ated_": 6290, "sk": 6291, "vect": 6292, "qual": 6293, "expires": 6294, "__class__": 6295, "diff": 6296, "actually": 6297, "inf": 6298, "_ok": 6299, "enot": 6300, "ges": 6301, "velo": 6302, "eso": 6303, "upon": 6304, "ica": 6305, "declarative_base": 6306, "license_plate_": 6307, "abstracteventloop": 6308, "flags": 6309, "replaced": 6310, "sorted": 6311, "latest": 6312, "adds": 6313, "cwd": 6314, "deleted": 6315, "ences": 6316, "a_": 6317, "modify": 6318, "fake_": 6319, "rick": 6320, "argskwargs": 6321, "_style": 6322, "reflection": 6323, "hdr": 6324, "alg": 6325, "cfg": 6326, "_from": 6327, "consist": 6328, "normalized": 6329, "check_digit": 6330, "anyio": 6331, "v3": 6332, "fixture_dir": 6333, "paramref": 6334, "addr": 6335, "sc": 6336, "zero": 6337, "below": 6338, "symb": 6339, "rules": 6340, "celerytest": 6341, "omit": 6342, "ér": 6343, "client_": 6344, "book": 6345, "all_": 6346, "wrong": 6347, "request_id": 6348, "aw": 6349, "concat": 6350, "box": 6351, "f401": 6352, "normally": 6353, "m2": 6354, "_processor": 6355, "ational": 6356, "swagger": 6357, "pyand": 6358, "pyandjson": 6359, "schedule": 6360, "polic": 6361, "ai": 6362, "normalize": 6363, "isn": 6364, "istic": 6365, "converted": 6366, "own": 6367, "d1": 6368, "exclus": 6369, "8000": 6370, "dot": 6371, "from_string": 6372, "docstring": 6373, "ya": 6374, "employee": 6375, "assert_raises": 6376, "altern": 6377, "strategy": 6378, "maj": 6379, "ponse": 6380, "immedi": 6381, "necessary": 6382, "applies": 6383, "members": 6384, "ders": 6385, "404": 6386, "incomplete": 6387, "rab": 6388, "instanti": 6389, "security_": 6390, "currenc": 6391, "variant": 6392, "zlib": 6393, "too": 6394, "sof": 6395, "unable": 6396, "assert_called_with": 6397, "prefer": 6398, "comparis": 6399, "comparison": 6400, "mail": 6401, "lists": 6402, "41": 6403, "emitted": 6404, "distin": 6405, "distinct": 6406, "rendered": 6407, "assertequal": 6408, "psycopg2": 6409, "numerify": 6410, "composite": 6411, "tiango": 6412, "tiangolo": 6413, "querypar": 6414, "queryparam": 6415, "whl": 6416, "regex": 6417, "charset": 6418, "unused": 6419, "eresponse": 6420, "_log": 6421, "processed": 6422, "reser": 6423, "please": 6424, "errno": 6425, "rollback": 6426, "mq": 6427, "_scheme": 6428, "current_app": 6429, "member": 6430, "after_": 6431, "98": 6432, "fnmatch": 6433, "ina": 6434, "scoping": 6435, "_th": 6436, "aries": 6437, "pose": 6438, "pairs": 6439, "anc": 6440, "autouse": 6441, "hub": 6442, "did": 6443, "old_": 6444, "_template": 6445, "_email": 6446, "room": 6447, "instanc": 6448, "pyodbc": 6449, "define_tables": 6450, "cte": 6451, "91": 6452, "argv": 6453, "trig": 6454, "magicmock": 6455, "compare": 6456, "terminate": 6457, "matching": 6458, "expire": 6459, "produces": 6460, "couch": 6461, "bitmq": 6462, "aggreg": 6463, "develo": 6464, "caplog": 6465, "file_name": 6466, "cade": 6467, "shutil": 6468, "s_dir": 6469, "traversal": 6470, "intro": 6471, "corout": 6472, "_exception": 6473, "constant": 6474, "longer": 6475, "got": 6476, "pos": 6477, "extern": 6478, "spath": 6479, "channel": 6480, "combinations": 6481, "come": 6482, "_effect": 6483, "write_text": 6484, "absol": 6485, "fd": 6486, "uth": 6487, "automotiveprovider": 6488, "branch": 6489, "made": 6490, "certificate": 6491, "_set": 6492, "closing": 6493, "max_length": 6494, "rec": 6495, "art": 6496, "_line": 6497, "skipif": 6498, "xml": 6499, "outcomes": 6500, "constructs": 6501, "unless": 6502, "_reg": 6503, "custom_": 6504, "tain": 6505, "ary_": 6506, "plate": 6507, "9999": 6508, "gender": 6509, "vat_id": 6510, "formats_female": 6511, "formats_male": 6512, "kt": 6513, "_repository": 6514, "router_": 6515, "schema_": 6516, "verbos": 6517, "verbosity": 6518, "scoped_session": 6519, "bindparam": 6520, "thandler": 6521, "algori": 6522, "algorith": 6523, "_test_": 6524, "argparse": 6525, "fra": 6526, "fraction": 6527, "phr": 6528, "dog": 6529, "maximum": 6530, "attempt": 6531, "ud": 6532, "27": 6533, "immutable": 6534, "equals": 6535, "vas": 6536, "d3": 6537, "cd": 6538, "f5": 6539, "_date": 6540, "repositor": 6541, "repositorypo": 6542, "repositorypool": 6543, "validate_test": 6544, "str_schema": 6545, "deps": 6546, "proxy_": 6547, "_for_": 6548, "icro": 6549, "ently": 6550, "es_": 6551, "imported": 6552, "_block": 6553, "nam": 6554, "formatted": 6555, "streaming": 6556, "b_": 6557, "neg": 6558, "coerce": 6559, "cial": 6560, "markers": 6561, "descriptor": 6562, "isbn": 6563, "street_address": 6564, "8b": 6565, "pluginmanager": 6566, "test_help": 6567, "backref": 6568, "arguments_": 6569, "arbit": 6570, "34": 6571, "canon": 6572, "canonical": 6573, "absolute": 6574, "bel": 6575, "lets": 6576, "item__": 6577, "_is": 6578, "_registr": 6579, "vector": 6580, "_ident": 6581, "queryparams": 6582, "default_factory": 6583, "locker": 6584, "er_factory": 6585, "myenum": 6586, "table1": 6587, "instancestate": 6588, "references": 6589, "nor": 6590, "yet": 6591, "cell": 6592, "ones": 6593, "updated": 6594, "founderror": 6595, "contents": 6596, "ially": 6597, "occurs": 6598, "_errors": 6599, "canvas": 6600, "past": 6601, "nested_": 6602, "implicit": 6603, "arg1": 6604, "bold": 6605, "sessionmaker": 6606, "profil": 6607, "ticket": 6608, "instrumented": 6609, "word_list": 6610, "str_": 6611, "get_mod": 6612, "reflected": 6613, "hdrs": 6614, "compression": 6615, "_mode": 6616, "minor": 6617, "chars": 6618, "request_": 6619, "collected": 6620, "_or_": 6621, "moun": 6622, "nl": 6623, "memo": 6624, "gb": 6625, "area_code": 6626, "tutorial003": 6627, "body_model_name": 6628, "fixturedir": 6629, "fixturedirgetter": 6630, "command_test": 6631, "command_tester_factory": 6632, "pydanticuser": 6633, "pydanticusererror": 6634, "comparator": 6635, "async_session": 6636, "applications": 6637, "getlogger": 6638, "bb": 6639, "response_class": 6640, "t2": 6641, "runpytest": 6642, "reports": 6643, "lds": 6644, "who": 6645, "light": 6646, "happ": 6647, "rabbitmq": 6648, "stamping": 6649, "zz": 6650, "_project": 6651, "_compat": 6652, "good": 6653, "companyprovider": 6654, "datetimeprovider": 6655, "user_name": 6656, "coerc": 6657, "typeengine": 6658, "test_needs_autoincrement": 6659, "execution_options": 6660, "base64": 6661, "coroutine": 6662, "addo": 6663, "tw": 6664, "side_effect": 6665, "pyfile": 6666, "overridden": 6667, "broken": 6668, "gets": 6669, "hour": 6670, "optionally": 6671, "ital": 6672, "ni": 6673, "d7": 6674, "inspector": 6675, "_generator": 6676, "referencing": 6677, "incompatibility": 6678, "typed_dict": 6679, "ily": 6680, "textwrap": 6681, "argnames": 6682, "micro": 6683, "ran": 6684, "normaliz": 6685, "pytest_mock": 6686, "__module": 6687, "__module__": 6688, "accepted": 6689, "uction": 6690, "passing": 6691, "overrides": 6692, "45": 6693, "media": 6694, "ater": 6695, "atures": 6696, "settings_": 6697, "lay": 6698, "_completion": 6699, "internetprovider": 6700, "customer": 6701, "forbid": 6702, "tutorial002_py310": 6703, "include_url": 6704, "add_to": 6705, "add_to_repo": 6706, "eof": 6707, "dec": 6708, "makes": 6709, "least": 6710, "phrase": 6711, "requirements": 6712, "_limit": 6713, "uss": 6714, "aa": 6715, "31": 6716, "though": 6717, "gettext": 6718, "locales": 6719, "elementstype": 6720, "_fixture": 6721, "testclientfactory": 6722, "accor": 6723, "across": 6724, "compres": 6725, "dummy": 6726, "math": 6727, "soft": 6728, "tempfile": 6729, "ste": 6730, "_run": 6731, "noti": 6732, "letter": 6733, "authenticated": 6734, "brow": 6735, "browser": 6736, "evaluate": 6737, "get_logger": 6738, "_sig": 6739, "myp": 6740, "deleting": 6741, "tree": 6742, "ан": 6743, "commandtesterfactory": 6744, "reading": 6745, "algorithm": 6746, "addoption": 6747, "move": 6748, "_one": 6749, "bucket": 6750, "concre": 6751, "vent": 6752, "fixup": 6753, "quor": 6754, "quorum": 6755, "embed": 6756, "ural": 6757, "decorated": 6758, "activ": 6759, "computed": 6760, "publication": 6761, "normalizedname": 6762, "python_version": 6763, "mutationmodel": 6764, "constructors": 6765, "scalars": 6766, "redu": 6767, "deco": 6768, "gzip": 6769, "wsmsg": 6770, "wsmsgtype": 6771, "_event": 6772, "major": 6773, "cer": 6774, "external": 6775, "95": 6776, "servers": 6777, "entri": 6778, "entries": 6779, "fmt": 6780, "ely": 6781, "entire": 6782, "flat": 6783, "cryp": 6784, "_serializ": 6785, "erepr": 6786, "bash": 6787, "_sa": 6788, "fk": 6789, "english": 6790, "poetry_": 6791, "_mappers": 6792, "streamresponse": 6793, "cycle": 6794, "jan": 6795, "ird": 6796, "xfail": 6797, "buf": 6798, "patching": 6799, "concrete": 6800, "unch": 6801, "redis_": 6802, "smoke": 6803, "thes": 6804, "_identity": 6805, "province": 6806, "int_": 6807, "test_security_": 6808, "_orm_": 6809, "synonym": 6810, "create_async_engine": 6811, "abstractmethod": 6812, "256": 6813, "_hash": 6814, "httpresponse": 6815, "json_": 6816, "_encoding": 6817, "ling": 6818, "alive": 6819, "event_loop": 6820, "expired": 6821, "ux": 6822, "extend": 6823, "tl": 6824, "kill": 6825, "difference": 6826, "pal": 6827, "passive": 6828, "_method": 6829, "session_": 6830, "prett": 6831, "user_": 6832, "positive": 6833, "scripts": 6834, "bankprovider": 6835, "incompatible": 6836, "_annotations": 6837, "pydanticdeprecated": 6838, "pydanticdeprecatedsince": 6839, "field_a": 6840, "comparableentity": 6841, "typedecorator": 6842, "bulk": 6843, "clientresponse": 6844, "unix": 6845, "internally": 6846, "mutablemapping": 6847, "requested": 6848, "protocols": 6849, "formed": 6850, "max_re": 6851, "aiohttp_client": 6852, "exactly": 6853, "uppercase": 6854, "tre": 6855, "_start": 6856, "intercept": 6857, "andra": 6858, "propagate": 6859, "tmpdir": 6860, "rtype": 6861, "choo": 6862, "hints": 6863, "agr": 6864, "_help": 6865, "terms": 6866, "sur": 6867, "orty": 6868, "lest": 6869, "projectpackage": 6870, "arguments_v3": 6871, "roles": 6872, "associationproxy": 6873, "_system": 6874, "_exceptions": 6875, "ume": 6876, "empty_": 6877, "optim": 6878, "_protocol": 6879, "mean": 6880, "cker": 6881, "chunks": 6882, "reserved": 6883, "makepyfile": 6884, "93": 6885, "folder": 6886, "unset": 6887, "_int": 6888, "ception": 6889, "_type_": 6890, "utility": 6891, "barcode": 6892, "47": 6893, "aq": 6894, "_model_": 6895, "assertsql": 6896, "_poly": 6897, "_poly_fixtures": 6898, "illu": 6899, "apps": 6900, "according": 6901, "accessed": 6902, "9a": 6903, "backwards": 6904, "bytearray": 6905, "fallback": 6906, "gz": 6907, "rule": 6908, "enter": 6909, "alex": 6910, "prepared": 6911, "structures": 6912, "_redirect": 6913, "pdb": 6914, "management": 6915, "disc": 6916, "ordering": 6917, "ller": 6918, "sessions": 6919, "goog": 6920, "saferepr": 6921, "57": 6922, "andid": 6923, "kit": 6924, "min_length": 6925, "plaint": 6926, "plaintext": 6927, "plaintextresponse": 6928, "plum": 6929, "plumbus": 6930, "_db": 6931, "urllib3": 6932, "field_name": 6933, "yank": 6934, "tramodel": 6935, "shard": 6936, "secure": 6937, "late": 6938, "affect": 6939, "_sync": 6940, "amily": 6941, "king": 6942, "authenticate": 6943, "minutes": 6944, "caching": 6945, "gers": 6946, "points": 6947, "adv": 6948, "fill": 6949, "considered": 6950, "estore": 6951, "e1": 6952, "_not_": 6953, "vs": 6954, "engines": 6955, "case_s": 6956, "en_ph": 6957, "hu": 6958, "last_name_female": 6959, "last_name_male": 6960, "dependency_": 6961, "field_validator": 6962, "mappings": 6963, "specification": 6964, "sockets": 6965, "_len": 6966, "trigger": 6967, "holder": 6968, "iterate": 6969, "outside": 6970, "maybe_": 6971, "symbol": 6972, "nod": 6973, "_queue": 6974, "forms": 6975, "inserts": 6976, "passport": 6977, "month_names": 6978, "pydanticundefined": 6979, "model_fields": 6980, "type_api": 6981, "proxies": 6982, "edit": 6983, "_spec": 6984, "chunked": 6985, "stringio": 6986, "formatting": 6987, "retries": 6988, "assigned": 6989, "sending": 6990, "cb": 6991, "mocked_": 6992, "_worker": 6993, "key1": 6994, "ortype": 6995, "persistent": 6996, "days": 6997, "pass_": 6998, "alone": 6999, "case_sensitive": 7000, "commons": 7001, "jp": 7002, "կա": 7003, "root_path": 7004, "joinedload": 7005, "_stmt": 7006, "cursorresult": 7007, "oserror": 7008, "reverse": 7009, "ffi": 7010, "register_": 7011, "repe": 7012, "_fr": 7013, "runs": 7014, "gar": 7015, "updates": 7016, "lint": 7017, "databases": 7018, "chor": 7019, "erialize": 7020, "receiver": 7021, "things": 7022, "manage": 7023, "separate": 7024, "obtain": 7025, "datas": 7026, "logy": 7027, "expected_response": 7028, "dirty_": 7029, "dirty_equals": 7030, "_io": 7031, "_fn": 7032, "declared_": 7033, "canonicalize": 7034, "canonicalize_name": 7035, "artifact": 7036, "clone": 7037, "ext_": 7038, "eb": 7039, "arbitrary": 7040, "hosts": 7041, "trip": 7042, "mac": 7043, "38": 7044, "vol": 7045, "pallets": 7046, "setenv": 7047, "depth": 7048, "self_": 7049, "recursive": 7050, "undle": 7051, "big": 7052, "expl": 7053, "_cy": 7054, "sql_": 7055, "foo_": 7056, "day_names": 7057, "forwardref": 7058, "u1": 7059, "tomlkit": 7060, "dsn": 7061, "field_b": 7062, "_postgresql": 7063, "hashlib": 7064, "__str": 7065, "__str__": 7066, "anges": 7067, "128": 7068, "tok": 7069, "_logger": 7070, "nothing": 7071, "taken": 7072, "partit": 7073, "max_retries": 7074, "depending": 7075, "confirm": 7076, "discuss": 7077, "gevent": 7078, "illi": 7079, "_values": 7080, "clock": 7081, "deserialize": 7082, "some_": 7083, "77": 7084, "255": 7085, "constructed": 7086, "39": 7087, "oremp": 7088, "oremprovider": 7089, "validations": 7090, "_tag": 7091, "morty": 7092, "apikey": 7093, "sa_exc": 7094, "with_polymorphic": 7095, "implements": 7096, "misc": 7097, "jun": 7098, "raising": 7099, "testserver": 7100, "lru": 7101, "working": 7102, "hex": 7103, "creation": 7104, "maintain": 7105, "represented": 7106, "reject": 7107, "accepts": 7108, "cass": 7109, "seem": 7110, "p1": 7111, "entry_": 7112, "54": 7113, "m1": 7114, "faker_": 7115, "target_": 7116, "a2": 7117, "first_names_male": 7118, "veh": 7119, "johndoe": 7120, "upgra": 7121, "executor": 7122, "limited": 7123, "expir": 7124, "policy": 7125, "bytesio": 7126, "readed": 7127, "family": 7128, "ired": 7129, "initialize": 7130, "third": 7131, "999": 7132, "excluded": 7133, "resources": 7134, "mkdir": 7135, "ane": 7136, "certain": 7137, "mount": 7138, "patterns": 7139, "eventlet": 7140, "retrie": 7141, "_as_": 7142, "callbacks": 7143, "ared_task": 7144, "paste": 7145, "_keys": 7146, "model_validator": 7147, "aweso": 7148, "awesome": 7149, "region": 7150, "staticmethod": 7151, "state_": 7152, "invok": 7153, "secondary": 7154, "ention": 7155, "_html": 7156, "yntax": 7157, "assertionerror": 7158, "prefix_": 7159, "currencyprovider": 7160, "loremprovider": 7161, "schemes": 7162, "include_router": 7163, "assets": 7164, "collector": 7165, "scalarresult": 7166, "async_scop": 7167, "async_scoped_session": 7168, "comma": 7169, "28": 7170, "ensures": 7171, "gun": 7172, "attach": 7173, "_once": 7174, "letes": 7175, "previously": 7176, "s3": 7177, "hum": 7178, "_regex": 7179, "imple": 7180, "_do": 7181, "_driver": 7182, "dead": 7183, "_load": 7184, "_digits": 7185, "national": 7186, "vehic": 7187, "vehicle": 7188, "izes": 7189, "pydantic_settings": 7190, "model_validate": 7191, "anyof": 7192, "query_param": 7193, "data_path": 7194, "yanked": 7195, "config_source": 7196, "fnmatch_lines": 7197, "assert_compile": 7198, "matched": 7199, "paused": 7200, "ites": 7201, "ination": 7202, "_addr": 7203, "userwarning": 7204, "slash": 7205, "letters": 7206, "poses": 7207, "ster": 7208, "pickleable": 7209, "complete_": 7210, "verifi": 7211, "e6": 7212, "implementations": 7213, "process_": 7214, "immediately": 7215, "eri": 7216, "test_get_": 7217, "_cmd": 7218, "generating": 7219, "adapted": 7220, "table_name": 7221, "lem": 7222, "create_all": 7223, "paren": 7224, "ji": 7225, "ón": 7226, "но": 7227, "markdown": 7228, "full_name": 7229, "schemaerror": 7230, "label_style": 7231, "literal_column": 7232, "_mapper": 7233, "_map": 7234, "six": 7235, "gn": 7236, "usr": 7237, "_lock": 7238, "_of_": 7239, "ario": 7240, "again": 7241, "png": 7242, "revoked": 7243, "eg": 7244, "shared_task": 7245, "delivery": 7246, "negative": 7247, "listener": 7248, "_or": 7249, "_bind": 7250, "ko": 7251, "67": 7252, "submodel": 7253, "env_file": 7254, "mixo": 7255, "mixology": 7256, "selist": 7257, "streams": 7258, "clientsession": 7259, "62": 7260, "s_path": 7261, "ed_data": 7262, "_pre": 7263, "predi": 7264, "anal": 7265, "homepage": 7266, "ives": 7267, "zoneinfo": 7268, "amer": 7269, "uff": 7270, "s1": 7271, "div": 7272, "arg2": 7273, "creditcard": 7274, "excinfo": 7275, "61": 7276, "ragment": 7277, "tutorial003_py310": 7278, "_migration": 7279, "referencingmodel": 7280, "configsettingssource": 7281, "columncollection": 7282, "expect_warnings": 7283, "declared_attr": 7284, "cascade": 7285, "readme": 7286, "ators": 7287, "unsupported": 7288, "removal": 7289, "f8": 7290, "refs": 7291, "docker": 7292, "_annotation": 7293, "d2": 7294, "push": 7295, "apply_async": 7296, "aren": 7297, "ili": 7298, "selected": 7299, "rewrite": 7300, "merged": 7301, "normalize_": 7302, "builder": 7303, "_union": 7304, "bak": 7305, "ال": 7306, "oauth2password": 7307, "create_dependency": 7308, "pyright": 7309, "compilation": 7310, "keyring": 7311, "solver": 7312, "selectin": 7313, "_typer": 7314, "wsmessage": 7315, "clientrequest": 7316, "ranges": 7317, "destination": 7318, "compressed": 7319, "ved_": 7320, "_d": 7321, "week": 7322, "quick": 7323, "imal": 7324, "fied": 7325, "53": 7326, "call_count": 7327, "signed": 7328, "placeholder": 7329, "caches": 7330, "along": 7331, "edge": 7332, "experi": 7333, "lead": 7334, "ile": 7335, "filesystem": 7336, "_sup": 7337, "mro": 7338, "filters": 7339, "gh": 7340, "ify_": 7341, "_pattern": 7342, "registrant": 7343, "tele": 7344, "doll": 7345, "dollar": 7346, "tor": 7347, "constrained": 7348, "create_model": 7349, "_metadata": 7350, "kwargs_model": 7351, "coercions": 7352, "vert": 7353, "redirects": 7354, "md5": 7355, "synchronous": 7356, "serve": 7357, "prevent": 7358, "simul": 7359, "c0": 7360, "filen": 7361, "scen": 7362, "assert_called_once": 7363, "shown": 7364, "base_url": 7365, "starting": 7366, "cassandra": 7367, "platforms": 7368, "dictionaries": 7369, "cls_": 7370, "series": 7371, "hours": 7372, "_update": 7373, "jack": 7374, "resulting": 7375, "pretty": 7376, "cache_key": 7377, "capital": 7378, "scale": 7379, "_defaults": 7380, "_prefixes": 7381, "isolation": 7382, "incorrect": 7383, "date_time": 7384, "apple": 7385, "_registration": 7386, "media_type": 7387, "operation_id": 7388, "computed_": 7389, "p_alias": 7390, "fetch_output": 7391, "createtable": 7392, "websocketresponse": 7393, "occurred": 7394, "asynciterable": 7395, "asynchronous": 7396, "parents": 7397, "download": 7398, "_at": 7399, "reduce": 7400, "best": 7401, "joinpath": 7402, "came": 7403, "insensitive": 7404, "predicate": 7405, "transform": 7406, "marked": 7407, "having": 7408, "separated": 7409, "features": 7410, "__eq": 7411, "__eq__": 7412, "ls": 7413, "splitlines": 7414, "mental": 7415, "controller": 7416, "processes": 7417, "chord_": 7418, "addition": 7419, "setdefault": 7420, "8601": 7421, "enumer": 7422, "fur": 7423, "ability": 7424, "test_foo": 7425, "011": 7426, "_session_": 7427, "street_suffix": 7428, "customerror": 7429, "dotenv": 7430, "overl": 7431, "virtualenvs": 7432, "s_set": 7433, "tracking": 7434, "miter": 7435, "indicating": 7436, "compressor": 7437, "get_args": 7438, "cut": 7439, "_tcp": 7440, "win32": 7441, "partition": 7442, "validates": 7443, "utf8": 7444, "filterwarnings": 7445, "mach": 7446, "window": 7447, "generally": 7448, "ished": 7449, "replacement": 7450, "sequences": 7451, "shar": 7452, "parametrized": 7453, "aggregate": 7454, "ath": 7455, "setup_method": 7456, "hidd": 7457, "hidden_": 7458, "command_": 7459, "retrieve": 7460, "51": 7461, "manually": 7462, "_short": 7463, "_models": 7464, "refers": 7465, "inheriting": 7466, "idx": 7467, "debugtoolbar": 7468, "gis": 7469, "going": 7470, "_000": 7471, "asyncpg": 7472, "add_dependency": 7473, "pydanticbasesettings": 7474, "pydanticbasesettingssource": 7475, "label_style_": 7476, "_kwargs": 7477, "inet": 7478, "syste": 7479, "systemex": 7480, "systemexit": 7481, "_host": 7482, "jobs": 7483, "toge": 7484, "together": 7485, "linux": 7486, "drain": 7487, "000000": 7488, "82": 7489, "assum": 7490, "consumed": 7491, "anced": 7492, "human": 7493, "deepcopy": 7494, "_o": 7495, "three": 7496, "crypto": 7497, "dt_": 7498, "ming": 7499, "joins": 7500, "renders": 7501, "localized": 7502, "sour": 7503, "_element": 7504, "catch_": 7505, "_script": 7506, "license_formats": 7507, "faq": 7508, "randomly": 7509, "bert": 7510, "azul": 7511, "vehicle_registration": 7512, "vehicle_registration_pl": 7513, "vehicle_registration_plates": 7514, "model_field": 7515, "cachekey": 7516, "create_item": 7517, "read_items_": 7518, "tutorial004": 7519, "privateattr": 7520, "secrets_dir": 7521, "checkfirst": 7522, "_sources": 7523, "baseprotocol": 7524, "sequent": 7525, "whites": 7526, "_codes": 7527, "noop": 7528, "pot": 7529, "netr": 7530, "running_": 7531, "iter__": 7532, "ellip": 7533, "8080": 7534, "keywords": 7535, "filepath": 7536, "captured": 7537, "num_": 7538, "space": 7539, "mocked": 7540, "construction": 7541, "spaces": 7542, "declared": 7543, "cyan": 7544, "anon_": 7545, "_3": 7546, "httpbasic": 7547, "private_": 7548, "consume": 7549, "123456789": 7550, "52": 7551, "opts": 7552, "isoformat": 7553, "autos": 7554, "seen": 7555, "pass_context": 7556, "metaclass": 7557, "concaten": 7558, "writable": 7559, "ambig": 7560, "ambigu": 7561, "hide": 7562, "vision": 7563, "aster": 7564, "bban": 7565, "candid": 7566, "requestbody": 7567, "myclass": 7568, "envmanager": 7569, "get_package": 7570, "_toml": 7571, "setup_mappers": 7572, "orders": 7573, "user_table": 7574, "uow": 7575, "anything": 7576, "adapt": 7577, "x00": 7578, "h1": 7579, "_ids": 7580, "_long": 7581, "ather": 7582, "file_": 7583, "higher": 7584, "launch": 7585, "routing_key": 7586, "yel": 7587, "yellow": 7588, "exceptioninfo": 7589, "b2": 7590, "_foo": 7591, "_impl": 7592, "children": 7593, "synchron": 7594, "celeryoption": 7595, "hidden": 7596, "clauses": 7597, "ua": 7598, "_datetime": 7599, "ry": 7600, "ар": 7601, "basti": 7602, "_ui": 7603, "query_params_": 7604, "query_params_str_": 7605, "query_params_str_validations": 7606, "fragment": 7607, "forbide": 7608, "forbidex": 7609, "forbidextramodel": 7610, "illustr": 7611, "formal": 7612, "morsel": 7613, "middlewar": 7614, "_sentinel": 7615, "httpversion": 7616, "subsequent": 7617, "escaped": 7618, "streamwriter": 7619, "x1": 7620, "netrc": 7621, "lax": 7622, "sli": 7623, "grace": 7624, "test_get": 7625, "scenario": 7626, "sender": 7627, "respect": 7628, "calculate": 7629, "hier": 7630, "hierarch": 7631, "_exit": 7632, "loglevel": 7633, "_and_": 7634, "nodename": 7635, "_store": 7636, "bundle": 7637, "google": 7638, "_directory": 7639, "greater": 7640, "asyncclient": 7641, "sync_": 7642, "abe": 7643, "ks": 7644, "_identifi": 7645, "ham": 7646, "employe": 7647, "employees": 7648, "nh": 7649, "ada": 7650, "pol": 7651, "ու": 7652, "ый": 7653, "fication": 7654, "read_current_user": 7655, "users_": 7656, "fixed_": 7657, "fixed_content": 7658, "_ts": 7659, "_list_str": 7660, "mapperproperty": 7661, "tcp": 7662, "lost": 7663, "_req": 7664, "whitespace": 7665, "waiting": 7666, "_rece": 7667, "detected": 7668, "aiohttpclient": 7669, "rection": 7670, "checked": 7671, "_ssl": 7672, "python3": 7673, "add_argument": 7674, "logs": 7675, "writes": 7676, "quotes": 7677, "tell": 7678, "records": 7679, "sends": 7680, "regard": 7681, "dar": 7682, "experimental": 7683, "_user": 7684, "exitcode": 7685, "lies": 7686, "autoscal": 7687, "_scal": 7688, "nice": 7689, "colors": 7690, "ably": 7691, "paragr": 7692, "paragraph": 7693, "nake": 7694, "ton": 7695, "_override": 7696, "hr": 7697, "_br": 7698, "00000000": 7699, "dc": 7700, "nb": 7701, "ий": 7702, "first_names_female": 7703, "რი": 7704, "colorprovider": 7705, "redoc": 7706, "_encoder": 7707, "test_main": 7708, "_parameter": 7709, "prere": 7710, "chooser": 7711, "indexes": 7712, "validate_json": 7713, "plain_repr": 7714, "_traverse": 7715, "ecution": 7716, "exec_driver": 7717, "exec_driver_sql": 7718, "mapper_": 7719, "middlewares": 7720, "dataclass_": 7721, "captur": 7722, "preserve": 7723, "mime": 7724, "minimum": 7725, "builtins": 7726, "httprequest": 7727, "_stream": 7728, "ipaddress": 7729, "posix": 7730, "_root": 7731, "_be": 7732, "coming": 7733, "ceed": 7734, "attempts": 7735, "nargs": 7736, "fri": 7737, "purposes": 7738, "path1": 7739, "tech": 7740, "black": 7741, "approach": 7742, "_in_": 7743, "detached": 7744, "declare": 7745, "_collect": 7746, "interpreter": 7747, "exceptiongroup": 7748, "celerytestworker": 7749, "_two": 7750, "much": 7751, "cf": 7752, "weights": 7753, "yph": 7754, "bur": 7755, "lio": 7756, "invoice": 7757, "test_case": 7758, "phase": 7759, "reprec": 7760, "is_true": 7761, "mappedtest": 7762, "expect_deprecated": 7763, "hstore": 7764, "unused_tcp": 7765, "unused_tcp_port": 7766, "pure": 7767, "arl": 7768, "performance": 7769, "phan": 7770, "_close": 7771, "sat": 7772, "tokens": 7773, "ons": 7774, "utilities": 7775, "conditions": 7776, "abspath": 7777, "monit": 7778, "81": 7779, "circ": 7780, "lowercase": 7781, "ales": 7782, "leak": 7783, "43": 7784, "ency": 7785, "established": 7786, "initi": 7787, "quoting": 7788, "bootsteps": 7789, "threads": 7790, "paces": 7791, "producer": 7792, "without_": 7793, "primit": 7794, "f1": 7795, "_password": 7796, "reply": 7797, "ias": 7798, "xxx": 7799, "valued": 7800, "192": 7801, "further": 7802, "layout": 7803, "ypes": 7804, "wift": 7805, "ipv4network": 7806, "social": 7807, "roman": 7808, "ро": 7809, "export": 7810, "789": 7811, "nan": 7812, "mkdocs": 7813, "_example": 7814, "_sol": 7815, "concept": 7816, "pydanticdeprecatedsince20": 7817, "model_schema": 7818, "foreignkeyconstraint": 7819, "writeonly": 7820, "mask": 7821, "itical": 7822, "204": 7823, "endswith": 7824, "extended": 7825, "servi": 7826, "dirname": 7827, "_mapping": 7828, "ener": 7829, "factor": 7830, "ave": 7831, "last_": 7832, "_params": 7833, "acqu": 7834, "performed": 7835, "entially": 7836, "receives": 7837, "dyna": 7838, "dynamod": 7839, "billi": 7840, "billiard": 7841, "_label": 7842, "69": 7843, "locations": 7844, "detection": 7845, "_as": 7846, "find_": 7847, "someclass": 7848, "d0": 7849, "_namespace": 7850, "vant": 7851, "get_origin": 7852, "standalone": 7853, "dirty": 7854, "copied": 7855, "translation": 7856, "process_request": 7857, "templat": 7858, "bc": 7859, "v_": 7860, "x_": 7861, "sections": 7862, "ол": 7863, "եր": 7864, "анк": 7865, "read_item": 7866, "quoted_name": 7867, "validated": 7868, "stashkey": 7869, "collation": 7870, "users_app": 7871, "suppress": 7872, "nonce": 7873, "header_": 7874, "brot": 7875, "pickled": 7876, "upgrade": 7877, "enable_": 7878, "trail": 7879, "early": 7880, "iteration": 7881, "spam": 7882, "percent": 7883, "fork": 7884, "_doc": 7885, "_modules": 7886, "dst": 7887, "preserved": 7888, "tls_": 7889, "decoding": 7890, "monkey": 7891, "notes": 7892, "_signature": 7893, "ream": 7894, "crash": 7895, "test_call": 7896, "broad": 7897, "subject": 7898, "hor": 7899, "tid": 7900, "separator": 7901, "_dirs": 7902, "builtin": 7903, "authenticator": 7904, "fron": 7905, "insert_": 7906, "ized_": 7907, "swift": 7908, "prefix_female": 7909, "exclusions": 7910, "asgiapp": 7911, "ipv4address": 7912, "expected_status": 7913, "_dependency": 7914, "typealiastype": 7915, "get_current_user": 7916, "convertor": 7917, "root_dir": 7918, "mockenv": 7919, "preparedrequest": 7920, "packageinfo": 7921, "add_package": 7922, "_pyproject": 7923, "fields_set": 7924, "__dialect": 7925, "__dialect__": 7926, "mytable": 7927, "some_table": 7928, "alternative": 7929, "hold": 7930, "constants": 7931, "debugging": 7932, "monitor": 7933, "access_token": 7934, "dedent": 7935, "uuid4": 7936, "_skip": 7937, "miss": 7938, "allowing": 7939, "subset": 7940, "_item": 7941, "seems": 7942, "join_": 7943, "_stack": 7944, "inc": 7945, "stampingvisitor": 7946, "log_": 7947, "celerytestsetup": 7948, "proj": 7949, "posed": 7950, "boto": 7951, "stamps": 7952, "bor": 7953, "59": 7954, "eas": 7955, "sdist": 7956, "processor": 7957, "46": 7958, "sect": 7959, "sn": 7960, "en_us": 7961, "license_plate": 7962, "gov": 7963, "ер": 7964, "sco": 7965, "scott": 7966, "fixedquery": 7967, "by_alias": 7968, "hashed_": 7969, "hashed_password": 7970, "settingsconfigdict": 7971, "settings_cls": 7972, "selectinload": 7973, "adapt_": 7974, "column_property": 7975, "executeparams": 7976, "criterion": 7977, "ime": 7978, "delimiter": 7979, "ever": 7980, "inject": 7981, "disposition": 7982, "content_length": 7983, "latin": 7984, "tex": 7985, "maxsize": 7986, "ellips": 7987, "run_until": 7988, "scri": 7989, "board": 7990, "href": 7991, "reach": 7992, "_dispatch": 7993, "websocket_": 7994, "blocking": 7995, "won": 7996, "ante": 7997, "suit": 7998, "deal": 7999, "translated": 8000, "retri": 8001, "retriev": 8002, "bra": 8003, "ps": 8004, "cryptograph": 8005, "subcommand": 8006, "__getattr": 8007, "__getattr__": 8008, "migr": 8009, "_support": 8010, "edges": 8011, "fire": 8012, "workercontainer": 8013, "batch": 8014, "_none": 8015, "lexer": 8016, "unchanged": 8017, "today": 8018, "deletes": 8019, "parenthes": 8020, "jsonb": 8021, "_v": 8022, "companies": 8023, "derived": 8024, "istan": 8025, "cities": 8026, "modelo": 8027, "test_post_": 8028, "testers": 8029, "coreconfig": 8030, "cols": 8031, "explan": 8032, "ofl": 8033, "filter_by": 8034, "columno": 8035, "columnoper": 8036, "columnoperators": 8037, "asyncconnection": 8038, "freeze": 8039, "resolution": 8040, "_read": 8041, "critical": 8042, "7f": 8043, "spe": 8044, "ix": 8045, "add_route": 8046, "retry_": 8047, "answer": 8048, "_import": 8049, "frames": 8050, "blog": 8051, "limits": 8052, "recursively": 8053, "configs": 8054, "enotfounderror": 8055, "topic": 8056, "_target": 8057, "_row": 8058, "iso8601": 8059, "bp": 8060, "oth": 8061, "introdu": 8062, "gs": 8063, "_plugins": 8064, "greet": 8065, "uk": 8066, "din": 8067, "omitted": 8068, "produced": 8069, "height": 8070, "iban": 8071, "ean13": 8072, "sbn": 8073, "building_number_formats": 8074, "hsl": 8075, "ssnprovider": 8076, "prefix_male": 8077, "truct": 8078, "computed_field": 8079, "int_parsing": 8080, "apis": 8081, "read_items_items": 8082, "openid": 8083, "heroes": 8084, "httpcore": 8085, "endfor": 8086, "bytecode": 8087, "validate_call": 8088, "typed_dict_field": 8089, "_plus": 8090, "oracled": 8091, "oracledb": 8092, "orm_exc": 8093, "chall": 8094, "rb": 8095, "trailing": 8096, "textio": 8097, "fixturedef": 8098, "direction": 8099, "tom": 8100, "shows": 8101, "b64": 8102, "andre": 8103, "duration": 8104, "slow": 8105, "pprint": 8106, "importing": 8107, "_val": 8108, "hashable": 8109, "rst": 8110, "ient": 8111, "conven": 8112, "corresponds": 8113, "resolved": 8114, "sil": 8115, "dynamodb": 8116, "dic": 8117, "know": 8118, "securityerror": 8119, "develop": 8120, "transi": 8121, "transient": 8122, "embedded": 8123, "str_to_": 8124, "id_": 8125, "rate": 8126, "levels": 8127, "e5": 8128, "_if": 8129, "stamped": 8130, "staticfiles": 8131, "relevant": 8132, "enumerate": 8133, "usageerror": 8134, "scre": 8135, "invoking": 8136, "master": 8137, "remainder": 8138, "zh": 8139, "city_suffix": 8140, "ka": 8141, "vat_id_formats": 8142, "europa": 8143, "taxation_": 8144, "taxation_custom": 8145, "taxation_customs": 8146, "vies": 8147, "item_11": 8148, "ah": 8149, "banco": 8150, "price_formats": 8151, "htmlresponse": 8152, "threadpool": 8153, "labels": 8154, "api_key": 8155, "wrappers": 8156, "unsafe": 8157, "locked": 8158, "project_factory": 8159, "transitive": 8160, "arguments_v3_parameter": 8161, "sexecution": 8162, "hybrid_property": 8163, "yarl": 8164, "clienterror": 8165, "sha256": 8166, "calculate_": 8167, "ports": 8168, "shortcut": 8169, "pong": 8170, "_runner": 8171, "stacklevel": 8172, "intended": 8173, "spawn": 8174, "indirect": 8175, "converts": 8176, "histor": 8177, "dynamically": 8178, "expand": 8179, "happens": 8180, "appear": 8181, "mong": 8182, "truncate": 8183, "eta": 8184, "instantiated": 8185, "images": 8186, "kr": 8187, "supports_": 8188, "offi": 8189, "help_group": 8190, "recorder": 8191, "alert": 8192, "lik": 8193, "invocation": 8194, "_colors": 8195, "override_settings": 8196, "visa": 8197, "bothify": 8198, "slug": 8199, "personal": 8200, "s_for": 8201, "va": 8202, "compound": 8203, "macro": 8204, "newly": 8205, "bye": 8206, "args__": 8207, "tablest": 8208, "tablestest": 8209, "automap": 8210, "_pk": 8211, "instrumentedattribute": 8212, "varchar2": 8213, "users_table": 8214, "tracebacktype": 8215, "challen": 8216, "challenge": 8217, "streamreader": 8218, "_ctx": 8219, "reco": 8220, "modul": 8221, "html_": 8222, "erru": 8223, "common_": 8224, "_char": 8225, "looks": 8226, "envvar": 8227, "conditional": 8228, "duplicate": 8229, "regardless": 8230, "couchbase": 8231, "requirement": 8232, "hierarchy": 8233, "projects": 8234, "guard": 8235, "init_": 8236, "eventer": 8237, "__iter__": 8238, "arm": 8239, "stan": 8240, "development": 8241, "app_name": 8242, "panel_id": 8243, "vcs": 8244, "cellphone": 8245, "ury": 8246, "alter": 8247, "sebasti": 8248, "datastruct": 8249, "validation_alias": 8250, "field_": 8251, "receive_count": 8252, "legacy_repository": 8253, "_execute": 8254, "annotated_types": 8255, "__pydantic_fields_set": 8256, "__pydantic_fields_set__": 8257, "illustrates": 8258, "dbapi_connection": 8259, "sessionevents": 8260, "_typer_complete": 8261, "ection": 8262, "concurrent": 8263, "pathlike": 8264, "initialized": 8265, "abbre": 8266, "recursion": 8267, "really": 8268, "respons": 8269, "existent": 8270, "remains": 8271, "hard": 8272, "automatic": 8273, "sub_app": 8274, "stores": 8275, "consul": 8276, "rer": 8277, "executing": 8278, "arily": 8279, "oid": 8280, "annotate": 8281, "isolated_": 8282, "by_": 8283, "_counter": 8284, "lied": 8285, "voke": 8286, "worker_queue": 8287, "420": 8288, "prepar": 8289, "_missing": 8290, "_mod": 8291, "_width": 8292, "extra_": 8293, "rgb": 8294, "_provider": 8295, "birthday": 8296, "address_formats": 8297, "tlds": 8298, "nd": 8299, "ен": 8300, "conjun": 8301, "مان": 8302, "hypo": 8303, "read_items_items__get": 8304, "tutorial004_py310": 8305, "item_name": 8306, "immutabledict": 8307, "bytest": 8308, "tomlfile": 8309, "_cache_dir": 8310, "lemental": 8311, "concepts": 8312, "orm_": 8313, "subqueryload": 8314, "expect_raises": 8315, "insertmany": 8316, "uniqueconstraint": 8317, "connected": 8318, "dataqueue": 8319, "allowed_": 8320, "brotli": 8321, "forwarded": 8322, "isolated": 8323, "recogn": 8324, "alt": 8325, "unicorn": 8326, "run_until_complete": 8327, "lease": 8328, "readthe": 8329, "readthedocs": 8330, "stdin": 8331, "_index": 8332, "wt": 8333, "clients": 8334, "subdomain": 8335, "twi": 8336, "accessing": 8337, "specifically": 8338, "guide": 8339, "shouldn": 8340, "by_name": 8341, "abortable": 8342, "ump": 8343, "native_": 8344, "myapp": 8345, "requesterror": 8346, "managed": 8347, "trying": 8348, "remote_addr": 8349, "selves": 8350, "happen": 8351, "verify_": 8352, "istics": 8353, "_register": 8354, "describe": 8355, "rendering": 8356, "profiling": 8357, "generate_stats": 8358, "vin": 8359, "country_code": 8360, "_ph": 8361, "ador": 8362, "168": 8363, "max_age": 8364, "asc": 8365, "street_prefix": 8366, "_handlers": 8367, "streamingresponse": 8368, "modelfield": 8369, "get_user": 8370, "tutorial001_an_py310": 8371, "connect_args": 8372, "accessor": 8373, "applicationtester": 8374, "simple_project": 8375, "assertsexecution": 8376, "assertsexecutionresults": 8377, "is_not": 8378, "vents": 8379, "asyncadapt_": 8380, "fixturetest": 8381, "boss": 8382, "autofl": 8383, "autoflush": 8384, "_gen": 8385, "bits": 8386, "_trace": 8387, "iet": 8388, "asynciterator": 8389, "fileresponse": 8390, "abbrevi": 8391, "interru": 8392, "software": 8393, "tmp_": 8394, "garb": 8395, "garbage": 8396, "original_": 8397, "restart": 8398, "important": 8399, "aborted": 8400, "ored": 8401, "displayed": 8402, "azureblock": 8403, "azureblockblob": 8404, "enotfound": 8405, "ignore_": 8406, "discussion": 8407, "cryptography": 8408, "65": 8409, "_after": 8410, "taskpool": 8411, "cert1": 8412, "quali": 8413, "bett": 8414, "pra": 8415, "front": 8416, "node1": 8417, "binary_": 8418, "attached": 8419, "alice": 8420, "subtest": 8421, "intersect": 8422, "es_es": 8423, "_checksum": 8424, "company_id": 8425, "84": 8426, "lateral": 8427, "ars": 8428, "los": 8429, "dul": 8430, "ст": 8431, "ел": 8432, "gl": 8433, "referenced": 8434, "datastructures": 8435, "secretstr": 8436, "sourc": 8437, "translated_": 8438, "en_doc": 8439, "_co": 8440, "_tuple": 8441, "update_item": 8442, "_test_files": 8443, "_validator_function": 8444, "modern": 8445, "_loader": 8446, "_reference": 8447, "complete_name": 8448, "gba": 8449, "qwe": 8450, "terminalwriter": 8451, "longrepr": 8452, "clear_mappers": 8453, "config_file": 8454, "add_typer": 8455, "introsp": 8456, "waiter": 8457, "connection_": 8458, "httpurl": 8459, "completed": 8460, "simplecookie": 8461, "deflate": 8462, "httpstatus": 8463, "transfer": 8464, "intenum": 8465, "buffered": 8466, "payment": 8467, "_send": 8468, "url_for": 8469, "stable": 8470, "cancelled": 8471, "get_event_loop": 8472, "repeat": 8473, "key2": 8474, "proc": 8475, "df": 8476, "403": 8477, "design": 8478, "_per": 8479, "enables": 8480, "removing": 8481, "gies": 8482, "registration": 8483, "72": 8484, "mlink": 8485, "preferred": 8486, "advanced": 8487, "cosmo": 8488, "cosmos": 8489, "cosmosdb": 8490, "elas": 8491, "_by_name": 8492, "gmail": 8493, "prefetch": 8494, "queue_": 8495, "basename": 8496, "delayed": 8497, "ttl": 8498, "default_worker_": 8499, "_collection": 8500, "e2": 8501, "logfile": 8502, "callables": 8503, "rdb": 8504, "fs": 8505, "_side": 8506, "_option": 8507, "colored": 8508, "mag": 8509, "tick": 8510, "bes": 8511, "_shell": 8512, "screen": 8513, "evaluation": 8514, "synchronize": 8515, "clon": 8516, "node2": 8517, "removes": 8518, "snake": 8519, "is_valid": 8520, "templatesyntax": 8521, "templatesyntaxerror": 8522, "_view": 8523, "nav": 8524, "bullet": 8525, "test_optional": 8526, "foo_bar": 8527, "free_email": 8528, "tin": 8529, "ра": 8530, "clau": 8531, "ин": 8532, "าร": 8533, "ერი": 8534, "warsa": 8535, "warsaw": 8536, "tp": 8537, "банк": 8538, "postal": 8539, "nocover": 8540, "_functions": 8541, "test_query_params_str_validations": 8542, "expected_content": 8543, "render_template": 8544, "marker_env": 8545, "free_th": 8546, "free_threaded": 8547, "schema_type": 8548, "selfref": 8549, "badconfig": 8550, "selfreferencingmodel": 8551, "_constraints": 8552, "insertmanyvalues": 8553, "functionelement": 8554, "decl_base": 8555, "asgireceive": 8556, "drain_": 8557, "often": 8558, "_msg": 8559, "reques": 8560, "uv": 8561, "dns": 8562, "_manager": 8563, "moved": 8564, "lru_cache": 8565, "town": 8566, "_listener": 8567, "_retry": 8568, "purpose": 8569, "decodeerror": 8570, "long_": 8571, "variation": 8572, "nat": 8573, "_api": 8574, "leading": 8575, "conversion": 8576, "format_": 8577, "__table": 8578, "evaluated": 8579, "table_": 8580, "aws": 8581, "better": 8582, "dependent": 8583, "acts": 8584, "widget": 8585, "readable": 8586, "baset": 8587, "workaround": 8588, "wrapping": 8589, "deserializ": 8590, "subcommands": 8591, "anycallable": 8592, "92": 8593, "img": 8594, "places": 8595, "obtained": 8596, "get_template": 8597, "graphql": 8598, "ops": 8599, "profiler": 8600, "lst": 8601, "it_": 8602, "company_suffixes": 8603, "b0": 8604, "dub": 8605, "motor": 8606, "run_sync": 8607, "super_": 8608, "_items__": 8609, "test_required": 8610, "copy_test_files": 8611, "jsonschemavalue": 8612, "decorate": 8613, "normalizer": 8614, "selfcommand": 8615, "alias_generator": 8616, "__pydantic_extra": 8617, "__pydantic_extra__": 8618, "items_schema": 8619, "explanation": 8620, "_collections": 8621, "x_oracle": 8622, "label_style_tablename": 8623, "label_style_tablename_plus": 8624, "label_style_tablename_plus_col": 8625, "defaultdialect": 8626, "ddle": 8627, "bindparameter": 8628, "columnclause": 8629, "asgis": 8630, "abstractstreamwriter": 8631, "_bro": 8632, "_default_": 8633, "af_": 8634, "slashes": 8635, "ascii_": 8636, "83": 8637, "exceeded": 8638, "write_": 8639, "nt": 8640, "filtering": 8641, "doing": 8642, "pem": 8643, "overflow": 8644, "_transport": 8645, "possib": 8646, "analy": 8647, "maintained": 8648, "calculated": 8649, "incoming": 8650, "described": 8651, "strategies": 8652, "elastic": 8653, "_seconds": 8654, "whenever": 8655, "2023": 8656, "_stop": 8657, "didn": 8658, "horiz": 8659, "__getitem__": 8660, "b3": 8661, "boto3": 8662, "any_": 8663, "queuepool": 8664, "capturing": 8665, "compute": 8666, "ambiguous": 8667, "prog_name": 8668, "pages": 8669, "created_at": 8670, "djdt": 8671, "get_name": 8672, "fetchall": 8673, "qualify": 8674, "_simple": 8675, "_card": 8676, "end_datetime": 8677, "century": 8678, "approx": 8679, "gut": 8680, "ای": 8681, "iér": 8682, "prague": 8683, "rez": 8684, "erc": 8685, "machine": 8686, "conjunction": 8687, "watch": 8688, "_unset": 8689, "oauth2passwordbearer": 8690, "oauth2_scheme": 8691, "test_security_http_": 8692, "get_db": 8693, "tutorial005": 8694, "userin": 8695, "cations": 8696, "pythonversion": 8697, "legacyrepository": 8698, "command_tester": 8699, "projectfactory": 8700, "supplemental": 8701, "pyprojecttoml": 8702, "mypy_": 8703, "inheritingmodel": 8704, "runtest": 8705, "gc_collect": 8706, "table2": 8707, "keyed_": 8708, "keyed_tuple": 8709, "syntaxextension": 8710, "tiger": 8711, "processortype": 8712, "_websocket": 8713, "forbidden": 8714, "connectionerror": 8715, "boundary": 8716, "ffici": 8717, "requesthandler": 8718, "_true": 8719, "subscri": 8720, "interrupt": 8721, "mous": 8722, "benchmarkfixture": 8723, "_frame": 8724, "camel": 8725, "write_bytes": 8726, "naming": 8727, "guar": 8728, "guarante": 8729, "remaining": 8730, "initialization": 8731, "issued": 8732, "dates": 8733, "lot": 8734, "couchdb": 8735, "schedul": 8736, "_node": 8737, "emon": 8738, "multiprocessing": 8739, "recomm": 8740, "serial": 8741, "exclusive": 8742, "opens": 8743, "f2": 8744, "thread_": 8745, "icalias": 8746, "_attribute": 8747, "broadcast": 8748, "reported": 8749, "das": 8750, "get_app": 8751, "iterations": 8752, "_command": 8753, "error_": 8754, "workdir": 8755, "identify": 8756, "prepend": 8757, "ilities": 8758, "contained": 8759, "fetched": 8760, "_show": 8761, "param_type": 8762, "situ": 8763, "bright": 8764, "review": 8765, "wrapped_": 8766, "hs": 8767, "continent": 8768, "luhn": 8769, "_stand": 8770, "_digit": 8771, "city_formats": 8772, "1e": 8773, "island": 8774, "ech": 8775, "uel": 8776, "és": 8777, "ор": 8778, "ən": 8779, "dublin": 8780, "_week": 8781, "emul": 8782, "_branch": 8783, "replaces": 8784, "wagger": 8785, "wagger_ui": 8786, "async_callable": 8787, "send_text": 8788, "basically": 8789, "templatenotfound": 8790, "activate": 8791, "_setup_": 8792, "disable_cache": 8793, "cachy": 8794, "getattr_migration": 8795, "pastebin": 8796, "__s": 8797, "__sparse_": 8798, "__sparse_driver": 8799, "__sparse_driver_backend": 8800, "__sparse_driver_backend__": 8801, "compilestate": 8802, "polymorphic_identity": 8803, "__mapper_": 8804, "__mapper_args__": 8805, "primarykey": 8806, "rowmapping": 8807, "async_sessionmaker": 8808, "transactional": 8809, "set_cookie": 8810, "pipe": 8811, "zstd": 8812, "formdata": 8813, "mimetype": 8814, "esult": 8815, "trusted": 8816, "badrequest": 8817, "poole": 8818, "argumentparser": 8819, "gate": 8820, "_auth": 8821, "fold": 8822, "closes": 8823, "restore": 8824, "assert_called_once_with": 8825, "issubclass": 8826, "_signals": 8827, "2f": 8828, "possibly": 8829, "suitable": 8830, "migration": 8831, "transit": 8832, "_extension": 8833, "_to_str": 8834, "comple": 8835, "fileno": 8836, "entrypo": 8837, "entrypoint": 8838, "namespaces": 8839, "submit": 8840, "r1": 8841, "additionally": 8842, "ny": 8843, "abbr": 8844, "secret_key": 8845, "overriding": 8846, "follows": 8847, "inserted": 8848, "identification": 8849, "scoped": 8850, "themselves": 8851, "termui": 8852, "cabc": 8853, "processors": 8854, "developer": 8855, "attempted": 8856, "button": 8857, "show_toolbar": 8858, "random_int": 8859, "_az": 8860, "ius": 8861, "cc": 8862, "fspath": 8863, "cu": 8864, "countries": 8865, "ira": 8866, "archive": 8867, "ilip": 8868, "sebastian": 8869, "stuff": 8870, "pu": 8871, "aliaspath": 8872, "_scopes": 8873, "model2": 8874, "oauth_header": 8875, "openidconnect": 8876, "mod_name": 8877, "translated_doc": 8878, "field1": 8879, "nul": 8880, "nullio": 8881, "poetry_with_": 8882, "pydanticcustomerror": 8883, "secretsmanager": 8884, "legacy_path": 8885, "stepwise": 8886, "subtests": 8887, "cx_oracle": 8888, "configure_mappers": 8889, "add_all": 8890, "exerc": 8891, "bitwise": 8892, "tupleany": 8893, "gutiér": 8894, "gutiérrez": 8895, "cookie_": 8896, "ward": 8897, "websocketdataqueue": 8898, "disconnected": 8899, "versed": 8900, "closure": 8901, "next_": 8902, "onic": 8903, "few": 8904, "1024": 8905, "_cursor": 8906, "stdlib": 8907, "party": 8908, "timing": 8909, "autospec": 8910, "_de": 8911, "four": 8912, "python_implementation": 8913, "reli": 8914, "xdist": 8915, "aky": 8916, "px": 8917, "aneous": 8918, "performs": 8919, "whole": 8920, "unlike": 8921, "amount": 8922, "cour": 8923, "shut": 8924, "elasticsearch": 8925, "comments": 8926, "iodic": 8927, "assuming": 8928, "retval": 8929, "is_flag": 8930, "multip": 8931, "dummy_": 8932, "guest": 8933, "ym": 8934, "whate": 8935, "elect": 8936, "__set": 8937, "_invalid": 8938, "errback": 8939, "fox": 8940, "123456": 8941, "x1b": 8942, "58": 8943, "others": 8944, "fair": 8945, "memoized": 8946, "invalidate": 8947, "cles": 8948, "serializable": 8949, "failing": 8950, "operate": 8951, "ips": 8952, "security_code": 8953, "de_de": 8954, "_standard": 8955, "street_name_formats": 8956, "street_address_formats": 8957, "postcode_formats": 8958, "hood": 8959, "fon": 8960, "networks": 8961, "_domains": 8962, "outdat": 8963, "আর": 8964, "month_name": 8965, "dim": 8966, "notification": 8967, "file_size": 8968, "get_body_model_name": 8969, "read_model_": 8970, "bytestream": 8971, "proxy_url": 8972, "tuple_": 8973, "compiles": 8974, "pypi_repository": 8975, "apping": 8976, "rgba": 8977, "pymysql": 8978, "reporter": 8979, "lazyload": 8980, "setup_classes": 8981, "is_false": 8982, "checkconstraint": 8983, "email_address": 8984, "orphan": 8985, "primarykeyconstraint": 8986, "asyncengine": 8987, "dbname": 8988, "aware": 8989, "connectors": 8990, "timeouterror": 8991, "getting": 8992, "76": 8993, "ypass": 8994, "iscoroutine": 8995, "httpa": 8996, "asynccontextmanager": 8997, "behaviour": 8998, "making": 8999, "minimal": 9000, "autodoc": 9001, "expon": 9002, "backoff": 9003, "everything": 9004, "extracted": 9005, "mocktransport": 9006, "_pt": 9007, "zipfile": 9008, "call_args": 9009, "_not": 9010, "cloud": 9011, "inite": 9012, "finished": 9013, "determined": 9014, "iel": 9015, "specifies": 9016, "conveni": 9017, "holds": 9018, "specifying": 9019, "eni": 9020, "setter": 9021, "_suc": 9022, "_success": 9023, "meaning": 9024, "ama": 9025, "workcontroller": 9026, "_sum": 9027, "fullmatch": 9028, "p2": 9029, "horizon": 9030, "is_none": 9031, "date_": 9032, "test_cli": 9033, "relation": 9034, "parent_id": 9035, "s2": 9036, "newlines": 9037, "alle": 9038, "internals": 9039, "_saf": 9040, "ifiers": 9041, "connectionpool": 9042, "touch": 9043, "integers": 9044, "therefore": 9045, "problem": 9046, "statistics": 9047, "originally": 9048, "visible": 9049, "populate": 9050, "extends": 9051, "vor": 9052, "object_type": 9053, "_sy": 9054, "dateparse": 9055, "dateparsetype": 9056, "ja_": 9057, "ja_jp": 9058, "az_az": 9059, "emoji": 9060, "ext_word_list": 9061, "simple_": 9062, "_session_faker": 9063, "neut": 9064, "bam": 9065, "cad": 9066, "afri": 9067, "philip": 9068, "ef": 9069, "anton": 9070, "را": 9071, "ral": 9072, "nad": 9073, "jn": 9074, "նա": 9075, "istanbul": 9076, "jsonable": 9077, "jsonable_encoder": 9078, "field_info": 9079, "securityschemes": 9080, "expected_json": 9081, "hero_id": 9082, "ptional": 9083, "_has": 9084, "appcontext": 9085, "defining": 9086, "error1": 9087, "filecache": 9088, "model_serializer": 9089, "typevartuple": 9090, "nomutationmodel": 9091, "import_": 9092, "pytestwarning": 9093, "only_on": 9094, "langhelpers": 9095, "_columnexpression": 9096, "creator": 9097, "run_inserts": 9098, "uselist": 9099, "argumenterror": 9100, "selectbase": 9101, "grouping": 9102, "person_id": 9103, "proxiedconnection": 9104, "executem": 9105, "_elements_": 9106, "_elements_constructors": 9107, "autocompletion": 9108, "update_wrapper": 9109, "decoded": 9110, "covariant": 9111, "chunk_size": 9112, "_fields": 9113, "xy": 9114, "min_": 9115, "_socket": 9116, "recognized": 9117, "microseconds": 9118, "simply": 9119, "_resolve": 9120, "_credentials": 9121, "b64encode": 9122, "displa": 9123, "display_": 9124, "raisable": 9125, "blocks": 9126, "patched": 9127, "_sock": 9128, "child_": 9129, "certific": 9130, "query_string": 9131, "sigterm": 9132, "itch": 9133, "cleaned": 9134, "subst": 9135, "treated": 9136, "succeed": 9137, "prom": 9138, "promise": 9139, "ensit": 9140, "symlink": 9141, "care": 9142, "cosmosdbsql": 9143, "instantiate": 9144, "pidfile": 9145, "fh": 9146, "imate": 9147, "assu": 9148, "2017": 9149, "yes": 9150, "autor": 9151, "dexception": 9152, "countdown": 9153, "qos": 9154, "test_app": 9155, "trap": 9156, "whatever": 9157, "finalize": 9158, "live": 9159, "access_key": 9160, "cam": 9161, "stic": 9162, "stamped_": 9163, "_issubclass": 9164, "e501": 9165, "alt_": 9166, "managers": 9167, "css": 9168, "outcome": 9169, "immediate": 9170, "unlink": 9171, "_core": 9172, "administr": 9173, "nonetype": 9174, "logi": 9175, "probably": 9176, "zones": 9177, "failures": 9178, "compared": 9179, "releases": 9180, "dash": 9181, "lazy_": 9182, "_input": 9183, "gently": 9184, "zsh": 9185, "spanel": 9186, "template_name": 9187, "autocommit": 9188, "wild": 9189, "convention": 9190, "default_locale": 9191, "_bd": 9192, "doi": 9193, "75": 9194, "geo": 9195, "a0": 9196, "south": 9197, "ander": 9198, "day_of": 9199, "day_of_week": 9200, "fastapideprecationwarning": 9201, "eventsourc": 9202, "eventsourceresponse": 9203, "tutorial002_an_py310": 9204, "renamed": 9205, "admin_email": 9206, "with_info": 9207, "chardet": 9208, "candidates": 9209, "causeerror": 9210, "capturefixture": 9211, "python_register": 9212, "adapters": 9213, "model_construct": 9214, "foomodel": 9215, "mydataclass": 9216, "nested_delimiter": 9217, "_cache_key": 9218, "vault": 9219, "argparsing": 9220, "testreport": 9221, "listeners": 9222, "testing_engine": 9223, "class_mapper": 9224, "decl_api": 9225, "expun": 9226, "selectables": 9227, "sessiontransaction": 9228, "async_s": 9229, "async_ss": 9230, "clien": 9231, "holding": 9232, "_called": 9233, "__new": 9234, "__new__": 9235, "_writer": 9236, "monot": 9237, "monotonic": 9238, "datat": 9239, "older": 9240, "store_true": 9241, "verr": 9242, "trace_config": 9243, "legal": 9244, "ixin": 9245, "_empty_": 9246, "listed": 9247, "populated": 9248, "cancell": 9249, "_tasks": 9250, "initial_": 9251, "production": 9252, "speed": 9253, "wal": 9254, "nonlocal": 9255, "101": 9256, "chat": 9257, "iness": 9258, "hello_": 9259, "twice": 9260, "logo": 9261, "give": 9262, "orjson": 9263, "had": 9264, "mixed": 9265, "logged": 9266, "trunc": 9267, "rera": 9268, "_name__": 9269, "isat": 9270, "isatty": 9271, "recommended": 9272, "default_app": 9273, "broker_url": 9274, "unhandled": 9275, "s_eager": 9276, "_pass": 9277, "returncode": 9278, "matcher": 9279, "_parse": 9280, "ransport": 9281, "aws_": 9282, "debugger": 9283, "supplied": 9284, "utest": 9285, "_max": 9286, "white": 9287, "default_worker": 9288, "_safe": 9289, "strateg": 9290, "68": 9291, "fb": 9292, "bootstep": 9293, "invalidrequesterror": 9294, "executes": 9295, "committed": 9296, "get_response": 9297, "requestfactory": 9298, "record_": 9299, "invol": 9300, "argspec": 9301, "hue": 9302, "it_it": 9303, "de_at": 9304, "faker_seed": 9305, "faker_locale": 9306, "getstate": 9307, "ascii_uppercase": 9308, "c4": 9309, "_number_": 9310, "peso": 9311, "brun": 9312, "ipv6address": 9313, "free_email_domains": 9314, "nr": 9315, "kon": 9316, "neutral": 9317, "identical": 9318, "anh": 9319, "ներ": 9320, "_sha": 9321, "ის": 9322, "vehicle_registration_plates_of_": 9323, "plates": 9324, "_columns": 9325, "router_a": 9326, "receive_text": 9327, "response_model_": 9328, "modifier": 9329, "_top": 9330, "httpauth": 9331, "httpbearer": 9332, "sqlmodel": 9333, "modelrequired": 9334, "notset": 9335, "whose": 9336, "persistence": 9337, "fixture_path": 9338, "consolemessage": 9339, "wheels": 9340, "lockfile": 9341, "dulwi": 9342, "dulwich": 9343, "_constraint": 9344, "puzz": 9345, "puzzle": 9346, "_dist": 9347, "config_": 9348, "_traceback": 9349, "_r_": 9350, "newpath": 9351, "unions": 9352, "123456789123456789": 9353, "alias_model": 9354, "_keyword": 9355, "arguments_v3_schema": 9356, "env_prefix": 9357, "secrets_": 9358, "hookimpl": 9359, "nodeid": 9360, "faul": 9361, "raisesgroup": 9362, "__requires": 9363, "__requires__": 9364, "dbtype": 9365, "server_default": 9366, "baked": 9367, "_internals": 9368, "textclause": 9369, "isolation_": 9370, "isolation_level": 9371, "sometable": 9372, "ipher": 9373, "vend": 9374, "typedefs": 9375, "baserequest": 9376, "introspection": 9377, "ing_paused": 9378, "reversed": 9379, "decompress": 9380, "bj": 9381, "sers": 9382, "iscoroutinefunction": 9383, "accesslogger": 9384, "usable": 9385, "assignments": 9386, "opening": 9387, "ansi": 9388, "_worker_": 9389, "dott": 9390, "adjust": 9391, "test_post": 9392, "assert_not_": 9393, "assert_not_called": 9394, "covered": 9395, "supporting": 9396, "12345": 9397, "convenience": 9398, "verifies": 9399, "scenarios": 9400, "updating": 9401, "inherits": 9402, "feed": 9403, "arang": 9404, "arangodb": 9405, "cron": 9406, "atortype": 9407, "groupresult": 9408, "_stamp": 9409, "assumed": 9410, "current_task": 9411, "lier": 9412, "pc": 9413, "accept_content": 9414, "lower_": 9415, "mongo": 9416, "oss": 9417, "appended": 9418, "urlparse": 9419, "getvalue": 9420, "actual_sig": 9421, "component": 9422, "enta": 9423, "_file_path": 9424, "bg": 9425, "revoke": 9426, "ago": 9427, "ness": 9428, "_required": 9429, "_without_": 9430, "props": 9431, "taking": 9432, "samples": 9433, "_end": 9434, "timezones": 9435, "likely": 9436, "validating": 9437, "_sessions": 9438, "services": 9439, "desired": 9440, "essentially": 9441, "tracker": 9442, "ju": 9443, "ordin": 9444, "199": 9445, "_panel": 9446, "login_": 9447, "kl": 9448, "asser": 9449, "2020": 9450, "_ru": 9451, "available_": 9452, "bn_bd": 9453, "f5f5": 9454, "north": 9455, "hot": 9456, "edu": 9457, "republic": 9458, "ember": 9459, "specs": 9460, "sand": 9461, "distributions": 9462, "nb_": 9463, "glyph": 9464, "سي": 9465, "بان": 9466, "بانک": 9467, "company_prefix": 9468, "ulica": 9469, "getjsonschema": 9470, "is_async_callable": 9471, "_schem": 9472, "field_serializer": 9473, "pydanticmodel": 9474, "users_me": 9475, "owner_ids": 9476, "_rebuild": 9477, "islist": 9478, "internalerror": 9479, "_typing_": 9480, "title_generator": 9481, "request_context": 9482, "tagged": 9483, "dictloader": 9484, "pendul": 9485, "pendulum": 9486, "_solver": 9487, "overlapping": 9488, "getcoreschema": 9489, "getcoreschemahandler": 9490, "positional_only": 9491, "validate_as": 9492, "model_fields_schema": 9493, "any_schema": 9494, "_cli": 9495, "test_1": 9496, "aioodbc": 9497, "generative": 9498, "__backend": 9499, "__backend__": 9500, "ne_": 9501, "collection_class": 9502, "clauselist": 9503, "select_from": 9504, "drop_all": 9505, "_orm_execute": 9506, "poolproxiedconnection": 9507, "executemany": 9508, "connectionpoolentry": 9509, "_dml": 9510, "savepoint": 9511, "asgireceivecallable": 9512, "asgisend": 9513, "asgisendcallable": 9514, "setuptools": 9515, "resume": 9516, "invalidurl": 9517, "request_info": 9518, "ake": 9519, "_filename": 9520, "if_": 9521, "fficient": 9522, "reasons": 9523, "emixin": 9524, "response_": 9525, "getenv": 9526, "fp": 9527, "pipel": 9528, "pipeline": 9529, "aust": 9530, "vary": 9531, "circular": 9532, "parameterset": 9533, "exc_value": 9534, "testdir": 9535, "create_app": 9536, "_has_": 9537, "contextvar": 9538, "qs": 9539, "flaky": 9540, "ultim": 9541, "gracefully": 9542, "encounter": 9543, "binding": 9544, "receiving": 9545, "permiss": 9546, "reconnect": 9547, "encoders": 9548, "mongodb": 9549, "find_packages": 9550, "reraise": 9551, "task_join_": 9552, "task_join_will": 9553, "task_join_will_block": 9554, "task_name": 9555, "einfo": 9556, "_states": 9557, "noun": 9558, "2012": 9559, "lis": 9560, "flatten": 9561, "placed": 9562, "keyvalu": 9563, "keyvaluestore": 9564, "keyvaluestorebackend": 9565, "persisted": 9566, "primitives": 9567, "_stdout": 9568, "termination": 9569, "ackage": 9570, "loader_": 9571, "_service": 9572, "b4": 9573, "memcached": 9574, "_secret": 9575, "agno": 9576, "workflow": 9577, "geor": 9578, "centr": 9579, "solution": 9580, "_link": 9581, "lrucache": 9582, "completer": 9583, "serves": 9584, "introduced": 9585, "sug": 9586, "suggest": 9587, "unders": 9588, "controls": 9589, "assertin": 9590, "_return": 9591, "sensitive": 9592, "determines": 9593, "progressbar": 9594, "sty": 9595, "paramspec": 9596, "truncation": 9597, "alpha_2": 9598, "clabe": 9599, "00000": 9600, "telephone": 9601, "street_suffixes": 9602, "00ff": 9603, "argent": 9604, "lad": 9605, "greek": 9606, "plus": 9607, "odd": 9608, "ipal": 9609, "ка": 9610, "رو": 9611, "ade": 9612, "carlos": 9613, "ران": 9614, "119": 9615, "ός": 9616, "ρά": 9617, "ized_name": 9618, "fac": 9619, "ფერი": 9620, "e3": 9621, "drive": 9622, "requestvalidationerror": 9623, "in_threadpool": 9624, "apiroute": 9625, "path_operation": 9626, "modelwith": 9627, "deliver": 9628, "somequery": 9629, "modeloptional": 9630, "route_handler": 9631, "modifications": 9632, "errorhandler": 9633, "class_registry": 9634, "configsource": 9635, "pyproject_content": 9636, "app_tester": 9637, "py2": 9638, "project_package": 9639, "materializ": 9640, "__pydantic_private": 9641, "__pydantic_private__": 9642, "x_alias": 9643, "type_name": 9644, "_env_file": 9645, "isinstance_python": 9646, "usual": 9647, "pytestpluginmanager": 9648, "_cr": 9649, "basetemp": 9650, "raisesexc": 9651, "getfunc": 9652, "getfuncargnames": 9653, "sql_util": 9654, "appender": 9655, "primaryjoin": 9656, "expunge": 9657, "textual": 9658, "normalized_": 9659, "normalized_output": 9660, "h11": 9661, "sslcontext": 9662, "prot": 9663, "qop": 9664, "atom": 9665, "futures": 9666, "expiration": 9667, "content_": 9668, "satis": 9669, "parsers": 9670, "lookuperror": 9671, "_first": 9672, "uvloop": 9673, "pytest_addoption": 9674, "af_inet": 9675, "strictly": 9676, "keepalive": 9677, "contra": 9678, "authorized": 9679, "finds": 9680, "cod": 9681, "_ssl_context": 9682, "phinx": 9683, "endpoints": 9684, "metavar": 9685, "jwt": 9686, "leave": 9687, "unraisable": 9688, "make_url": 9689, "test_put": 9690, "anchor": 9691, "infinite": 9692, "domains": 9693, "poo": 9694, "simulate": 9695, "behave": 9696, "_run_": 9697, "qualname": 9698, "aggregate_": 9699, "__import": 9700, "__import__": 9701, "result_backend": 9702, "far": 9703, "acquire": 9704, "celery_app": 9705, "consumer_": 9706, "wrapper_": 9707, "genericalias": 9708, "validationinfo": 9709, "vide": 9710, "drainer": 9711, "__table__": 9712, "pad": 9713, "quit": 9714, "recent": 9715, "jav": 9716, "_strings": 9717, "microsecond": 9718, "magenta": 9719, "event_": 9720, "result_timeout": 9721, "configurations": 9722, "_processors": 9723, "describes": 9724, "chained": 9725, "ism": 9726, "gments": 9727, "actions": 9728, "thus": 9729, "dots": 9730, "_literal": 9731, "superclass": 9732, "dispose": 9733, "editable": 9734, "_static": 9735, "_case": 9736, "situations": 9737, "force_": 9738, "rev": 9739, "goes": 9740, "stub": 9741, "1234567890": 9742, "ises": 9743, "test_func": 9744, "is_async": 9745, "enph": 9746, "not_an": 9747, "rut": 9748, "bban_format": 9749, "e0": 9750, "catch_phrase": 9751, "sta": 9752, "austr": 9753, "hoo": 9754, "ов": 9755, "ري": 9756, "chri": 9757, "adri": 9758, "ին": 9759, "ên": 9760, "backgroundtasks": 9761, "asyncgenerator": 9762, "aliaschoices": 9763, "redirectresponse": 9764, "is_file": 9765, "modela": 9766, "_too": 9767, "schematype": 9768, "workdir_lock": 9769, "t12": 9770, "from_orm": 9771, "with_info_": 9772, "typeguard": 9773, "_typing_extra": 9774, "markupsafe": 9775, "protocolerror": 9776, "_flow": 9777, "overlap": 9778, "endblock": 9779, "classname": 9780, "abstractset": 9781, "findpython": 9782, "testrepository": 9783, "fetch_error": 9784, "pyproject_toml": 9785, "generate_schema": 9786, "fullname": 9787, "m3": 9788, "567812345678": 9789, "parametrization": 9790, "pathtype": 9791, "normalize_sequence": 9792, "internaltraversal": 9793, "ablest": 9794, "ablestat": 9795, "populates": 9796, "primary_language": 9797, "do_orm_execute": 9798, "_traverse_internals": 9799, "eventtarget": 9800, "str50": 9801, "_reading_paused": 9802, "websocketreader": 9803, "digestauth": 9804, "_conn": 9805, "zlibbackend": 9806, "ey": 9807, "jul": 9808, "_delete": 9809, "disp": 9810, "disptype": 9811, "_setup": 9812, "threaded": 9813, "yields": 9814, "baser": 9815, "producing": 9816, "_q": 9817, "excludes": 9818, "exh": 9819, "exhaust": 9820, "successfully": 9821, "_mock": 9822, "spec_set": 9823, "importors": 9824, "importorskip": 9825, "popen": 9826, "_create_": 9827, "gather": 9828, "cos": 9829, "instruction": 9830, "larg": 9831, "filtered": 9832, "encountered": 9833, "scheduler": 9834, "bytes_to_str": 9835, "daemon": 9836, "_set_": 9837, "pylint": 9838, "symbols": 9839, "timed": 9840, "reporting": 9841, "ensure_": 9842, "located": 9843, "mytask": 9844, "_next": 9845, "_consumer": 9846, "f3": 9847, "optimiz": 9848, "cross": 9849, "temporaryfile": 9850, "looking": 9851, "expects": 9852, "pidbox": 9853, "applying": 9854, "central": 9855, "programming": 9856, "deploy": 9857, "load_options": 9858, "paramtype": 9859, "highlight": 9860, "_spa": 9861, "skips": 9862, "_warning": 9863, "basis": 9864, "unded": 9865, "bdist": 9866, "_fetch": 9867, "peps": 9868, "all_colors": 9869, "89": 9870, "interactive": 9871, "infer": 9872, "_toolbar_": 9873, "csp": 9874, "bootstr": 9875, "seleni": 9876, "selenium": 9877, "viewport": 9878, "basetestcase": 9879, "aff": 9880, "_and": 9881, "non_": 9882, "_con": 9883, "form_": 9884, "angle": 9885, "storing": 9886, "type_hints": 9887, "cs_": 9888, "ru_ru": 9889, "uz": 9890, "business": 9891, "franc": 9892, "animal": 9893, "west": 9894, "a3": 9895, "ann": 9896, "natural": 9897, "albert": 9898, "den": 9899, "uba": 9900, "ier": 9901, "abs": 9902, "grun": 9903, "techni": 9904, "romanized_name": 9905, "ույ": 9906, "rea": 9907, "road": 9908, "serversent": 9909, "serversentevent": 9910, "modelb": 9911, "oneof": 9912, "password_hash": 9913, "insert_assert": 9914, "isstr": 9915, "typing_inspection": 9916, "core_schema__": 9917, "artifact_cache": 9918, "source_type": 9919, "poetry_manag": 9920, "poetry_managed_": 9921, "envs_": 9922, "arguments_schema": 9923, "field2": 9924, "kwargsforbidextramodel": 9925, "definition_reference": 9926, "definition_reference_schema": 9927, "typed_dict_schema": 9928, "enums": 9929, "modcol": 9930, "warning_types": 9931, "faulthandler": 9932, "terminalreporter": 9933, "versioned": 9934, "association_": 9935, "association_proxy": 9936, "initiator": 9937, "weather": 9938, "slide": 9939, "exercise": 9940, "ormex": 9941, "myid": 9942, "tbl": 9943, "tablesample": 9944, "nvarchar": 9945, "sqlcompiler": 9946, "executioncontext": 9947, "dblink": 9948, "follower": 9949, "sqlc": 9950, "dogp": 9951, "dogpile": 9952, "server_state": 9953, "_find": 9954, "clienthandler": 9955, "clienthandlertype": 9956, "prevents": 9957, "xff": 9958, "latin1": 9959, "enough": 9960, "tu": 9961, "slice": 9962, "tracerequest": 9963, "urldispatcher": 9964, "ellipsis": 9965, "gunicorn": 9966, "_requests": 9967, "friends": 9968, "pytest_plugin": 9969, "_byte": 9970, "caused": 9971, "test_repr": 9972, "xyz": 9973, "test2": 9974, "singlet": 9975, "temppath": 9976, "temppathfactory": 9977, "separately": 9978, "hashes": 9979, "302": 9980, "discussions": 9981, "connecting": 9982, "gcs": 9983, "alway": 9984, "ught": 9985, "6400": 9986, "ensure_bytes": 9987, "policy_": 9988, "autoscale": 9989, "recorded": 9990, "behaviors": 9991, "documents": 9992, "frequ": 9993, "guaranteed": 9994, "dicts": 9995, "_events": 9996, "descriptors": 9997, "favor": 9998, "pool_size": 9999, "complete_var": 10000, "_words": 10001, "line_no": 10002, "catch_warnings": 10003, "somewhere": 10004, "eli": 10005, "fr_fr": 10006, "pie": 10007, "illa": 10008, "checker": 10009, "localized_": 10010, "ula": 10011, "yan": 10012, "ipv6network": 10013, "yahoo": 10014, "hotmail": 10015, "ala": 10016, "unifi": 10017, "thai": 10018, "landline": 10019, "4960": 10020, "daniel": 10021, "sam": 10022, "guy": 10023, "dirk": 10024, "assume": 10025, "ет": 10026, "ия": 10027, "čar": 10028, "ní": 10029, "assist": 10030, "ativ": 10031, "lenient": 10032, "aftervalidator": 10033, "mainly": 10034, "model_dump_json": 10035, "is_dir": 10036, "ed_at": 10037, "limit_": 10038, "_sequence": 10039, "tokenurl": 10040, "read_main": 10041, "auto_error": 10042, "httpauthor": 10043, "httpauthorization": 10044, "httpauthorizationcredentials": 10045, "tutorial005_py310": 10046, "tutorial006": 10047, "fake_db": 10048, "gitransport": 10049, "_tmp": 10050, "_tmp_path": 10051, "trusted_": 10052, "new_url": 10053, "start_response": 10054, "sandbox": 10055, "test_env": 10056, "load_only": 10057, "build_constraints": 10058, "main_group": 10059, "cache_dir": 10060, "dependencyp": 10061, "repository_cache_dir": 10062, "_pyproject_file": 10063, "decision": 10064, "dict_schema": 10065, "not_an_int": 10066, "keyvault": 10067, "version_id": 10068, "pytest_run": 10069, "metafunc": 10070, "await_": 10071, "run_deletes": 10072, "contains_eager": 10073, "collate": 10074, "tstring": 10075, "__visit": 10076, "__visit_name__": 10077, "keytype": 10078, "createtableas": 10079, "aliasedclass": 10080, "multirange": 10081, "rowid": 10082, "_toplevel": 10083, "tableclause": 10084, "supervis": 10085, "overhead": 10086, "providing": 10087, "cimultidictproxy": 10088, "cookie_header": 10089, "scheduled": 10090, "oct": 10091, "guess": 10092, "chr": 10093, "sto": 10094, "bz": 10095, "_sl": 10096, "differs": 10097, "add_get": 10098, "raise_for_": 10099, "raise_for_status": 10100, "addini": 10101, "itter": 10102, "err2": 10103, "keeps": 10104, "enter__": 10105, "fresh": 10106, "hello_world": 10107, "beta": 10108, "sq": 10109, "switch": 10110, "_split": 10111, "keeping": 10112, "simult": 10113, "simultaneous": 10114, "opened": 10115, "builds": 10116, "belong": 10117, "reads": 10118, "307": 10119, "ning": 10120, "__doc": 10121, "73": 10122, "providing_": 10123, "providing_args": 10124, "favi": 10125, "favicon": 10126, "task_logger": 10127, "_replace": 10128, "_broker": 10129, "package_name": 10130, "private_key": 10131, "openssl": 10132, "error_message": 10133, "pool_cls": 10134, "r2": 10135, "cum": 10136, "new_key": 10137, "baseloader": 10138, "purge": 10139, "thost": 10140, "apsed": 10141, "800": 10142, "ii": 10143, "_report": 10144, "63": 10145, "tested": 10146, "pow": 10147, "america": 10148, "pract": 10149, "plural": 10150, "mechan": 10151, "010": 10152, "maxlen": 10153, "regar": 10154, "_existing": 10155, "show_default": 10156, "interpreted": 10157, "_sort": 10158, "inclus": 10159, "alpha_3": 10160, "utions": 10161, "de_ch": 10162, "ean8": 10163, "fil_ph": 10164, "credit_card": 10165, "_rule": 10166, "vd": 10167, "mr": 10168, "ican": 10169, "domin": 10170, "randint": 10171, "randrange": 10172, "philipp": 10173, "ura": 10174, "belgi": 10175, "351": 10176, "249": 10177, "ου": 10178, "iran": 10179, "mü": 10180, "zer": 10181, "zajn": 10182, "zajnér": 10183, "mé": 10184, "vehicle_registration_plates_of": 10185, "city_name": 10186, "ipv4interface": 10187, "websocketdisconnect": 10188, "_parsing": 10189, "b_a": 10190, "hasrepr": 10191, "testtoken": 10192, "test_schema": 10193, "_rel": 10194, "_schema_": 10195, "trio": 10196, "wildcard": 10197, "async_func": 10198, "col1": 10199, "baseconfig": 10200, "_revision": 10201, "_pypi": 10202, "notfounderror": 10203, "tomli": 10204, "new_version": 10205, "functiontype": 10206, "eval_example": 10207, "list_schema": 10208, "field3": 10209, "_attr": 10210, "envsettingssource": 10211, "secretssettingssource": 10212, "_subprocess": 10213, "inline_run": 10214, "onto": 10215, "s_cy": 10216, "_columnexpressionargument": 10217, "node4": 10218, "__only_on": 10219, "__only_on__": 10220, "null_union": 10221, "canary": 10222, "inits": 10223, "anon_1": 10224, "_syntax": 10225, "compoundselect": 10226, "_noarg": 10227, "fntype": 10228, "_et": 10229, "sqlcipher": 10230, "name_callback": 10231, "markup_mode": 10232, "normalize_rich": 10233, "normalize_rich_output": 10234, "app_dir": 10235, "run_server": 10236, "libs": 10237, "_parser": 10238, "messag": 10239, "_spe": 10240, "rict": 10241, "att": 10242, "bypass": 10243, "seman": 10244, "perman": 10245, "cancellation": 10246, "requests_": 10247, "_attrs": 10248, "passes": 10249, "levelname": 10250, "onymous": 10251, "tomllib": 10252, "create_autospec": 10253, "_call": 10254, "singleton": 10255, "_instance": 10256, "test_delete": 10257, "unlock": 10258, "discard": 10259, "exist_ok": 10260, "_blocks": 10261, "buff": 10262, "causes": 10263, "bey": 10264, "duplicates": 10265, "fetching": 10266, "symbol_by_name": 10267, "itemgetter": 10268, "__setattr": 10269, "__setattr__": 10270, "get_current_": 10271, "publis": 10272, "publisher": 10273, "autoretry": 10274, "caught": 10275, "getpid": 10276, "uck": 10277, "calledprocess": 10278, "calledprocesserror": 10279, "pytest_celery": 10280, "delattr": 10281, "test_module": 10282, "exits": 10283, "_parse_url": 10284, "__setitem__": 10285, "biginteger": 10286, "dom": 10287, "curses": 10288, "_serializers": 10289, "agnostic": 10290, "is_none_type": 10291, "chdir": 10292, "minute": 10293, "2010": 10294, "log_level": 10295, "official": 10296, "0001": 10297, "occurren": 10298, "nameerror": 10299, "publishing": 10300, "tracebacks": 10301, "leav": 10302, "_pem": 10303, "linked": 10304, "pycon": 10305, "throw": 10306, "transition": 10307, "theme": 10308, "implicitly": 10309, "wasn": 10310, "forcing": 10311, "coordin": 10312, "repeated": 10313, "anel": 10314, "view_func": 10315, "descend": 10316, "simplefilter": 10317, "perf": 10318, "identified": 10319, "_paths": 10320, "_history": 10321, "enforce": 10322, "_0": 10323, "alpha_2_code": 10324, "rad": 10325, "upc": 10326, "ae": 10327, "bd": 10328, "international": 10329, "7ff": 10330, "8c": 10331, "years": 10332, "fren": 10333, "french": 10334, "ati": 10335, "modification": 10336, "nummer": 10337, "mostly": 10338, "ما": 10339, "на": 10340, "anco": 10341, "سی": 10342, "ικ": 10343, "elem": 10344, "fred": 10345, "سيمان": 10346, "ისფერი": 10347, "alog": 10348, "referred": 10349, "typical": 10350, "_oauth2": 10351, "sse": 10352, "spons": 10353, "skipping": 10354, "umpy": 10355, "websocket_connect": 10356, "u2": 10357, "hidden_query": 10358, "_redirects": 10359, "read_current_user_": 10360, "read_current_user_users_me": 10361, "read_current_user_users_me_get": 10362, "oauth2passwordrequest": 10363, "oauth2passwordrequestform": 10364, "items_per": 10365, "items_per_user": 10366, "emailstr": 10367, "kw_only": 10368, "_ref": 10369, "pypirepository": 10370, "uploader": 10371, "mason": 10372, "masonry": 10373, "htmlpage": 10374, "erepository": 10375, "_locations": 10376, "schema_ref": 10377, "mysqldb": 10378, "bool_schema": 10379, "isstrict": 10380, "isstrictdict": 10381, "expected_type_": 10382, "awssecretsmanager": 10383, "referential": 10384, "cachedir": 10385, "alternate": 10386, "aiosqlite": 10387, "concretebase": 10388, "listens_for": 10389, "_criter": 10390, "back_": 10391, "back_populates": 10392, "_cast": 10393, "columnexpression": 10394, "inputsizes": 10395, "_t_co": 10396, "_orm_constructors": 10397, "synonyms": 10398, "argument_name": 10399, "_typer_complete_args": 10400, "httptools": 10401, "wsprotocol": 10402, "vendor": 10403, "parse_set_cookie": 10404, "parse_set_cookie_headers": 10405, "basetransport": 10406, "mismatch": 10407, "dataclass_decorator": 10408, "websocketwriter": 10409, "connectionkey": 10410, "900": 10411, "changing": 10412, "content_disposition": 10413, "faster": 10414, "test_utils": 10415, "ns_": 10416, "behaves": 10417, "proble": 10418, "indexerror": 10419, "combining": 10420, "monitoring": 10421, "jsondecodeerror": 10422, "keyboard": 10423, "pytest_configure": 10424, "value1": 10425, "exception_handler": 10426, "_exception_handler": 10427, "_received": 10428, "dotted": 10429, "asserttrue": 10430, "exit__": 10431, "pdf": 10432, "_make_": 10433, "make_mocked_": 10434, "make_mocked_request": 10435, "205": 10436, "contextvars": 10437, "chos": 10438, "ultimately": 10439, "reused": 10440, "espec": 10441, "ape": 10442, "mutables": 10443, "getitem": 10444, "__doc__": 10445, "__qual": 10446, "__qualname__": 10447, "behind": 10448, "on_error": 10449, "modulenotfounderror": 10450, "broker_": 10451, "hon": 10452, "check_output": 10453, "mocks": 10454, "bunch": 10455, "ingle": 10456, "import_from_": 10457, "video": 10458, "eresult": 10459, "estor": 10460, "enc": 10461, "fab": 10462, "consuming": 10463, "scr": 10464, "do_": 10465, "on_signature": 10466, "jsonify": 10467, "no_color": 10468, "rebuild": 10469, "_var": 10470, "default_worker_app": 10471, "handle_pre": 10472, "handle_preload_options": 10473, "list_": 10474, "hence": 10475, "undo": 10476, "sch": 10477, "choose": 10478, "c_": 10479, "anystr": 10480, "concatenate": 10481, "largebinary": 10482, "equality": 10483, "customize": 10484, "cloned": 10485, "reloader": 10486, "applicable": 10487, "sanit": 10488, "easy": 10489, "checkout": 10490, "locate": 10491, "surro": 10492, "db_": 10493, "asynct": 10494, "ted_": 10495, "uniqu": 10496, "uniquen": 10497, "alpha_3_code": 10498, "nz": 10499, "banks": 10500, "company_": 10501, "_generate_": 10502, "prof": 10503, "provider_name": 10504, "jobprovider": 10505, "antr": 10506, "samplecode": 10507, "samplecodevalidator": 10508, "dataset": 10509, "cv": 10510, "d3d3": 10511, "ament": 10512, "candidate": 10513, "dio": 10514, "birthdate": 10515, "products": 10516, "b8": 10517, "filip": 10518, "71": 10519, "496": 10520, "ين": 10521, "amin": 10522, "nik": 10523, "rank": 10524, "chef": 10525, "replacements": 10526, "park": 10527, "c0c0": 10528, "regarding": 10529, "_swagger_ui": 10530, "getjsonschemahandler": 10531, "pydanticschema": 10532, "rectangle": 10533, "_scope": 10534, "oops": 10535, "_same": 10536, "footoken": 10537, "footokenbar": 10538, "path_params": 10539, "sync_playwright": 10540, "screenshot": 10541, "plain_validator_function": 10542, "generatejsonschema": 10543, "modules_tmp_path": 10544, "netloc": 10545, "undefinederror": 10546, "merge_errors": 10547, "installedrepository": 10548, "leases": 10549, "create_poetry": 10550, "poetryruntimeerror": 10551, "envcommand": 10552, "entry_point": 10553, "invalidated": 10554, "superse": 10555, "pydanticserialization": 10556, "parse_obj": 10557, "parse_obj_as": 10558, "validate_arguments": 10559, "innermodel": 10560, "_serialization": 10561, "markdecorator": 10562, "aliasmodel": 10563, "forwardreferencingmodel": 10564, "futuremodel": 10565, "kwargsmutationmodel": 10566, "definitions_schema": 10567, "sub_branch": 10568, "v1validator": 10569, "azurekeyvault": 10570, "pytest_runtest_": 10571, "some_object": 10572, "httpadapter": 10573, "affin": 10574, "affinity": 10575, "node3": 10576, "_keyed_dict": 10577, "nulltype": 10578, "loader_criteria": 10579, "t3": 10580, "selects": 10581, "ormexec": 10582, "select_stmt": 10583, "from_statement": 10584, "foos": 10585, "aggregate_order_by": 10586, "minvalue": 10587, "binaryexpression": 10588, "queryable": 10589, "queryableattribute": 10590, "characteristic": 10591, "schemaitem": 10592, "_kt": 10593, "custom_op": 10594, "hiro": 10595, "ose": 10596, "responsemessage": 10597, "realm": 10598, "responsehandler": 10599, "encod": 10600, "encodings": 10601, "decompressor": 10602, "libr": 10603, "libraries": 10604, "permit": 10605, "_cookies": 10606, "pickling": 10607, "nov": 10608, "newline": 10609, "expose": 10610, "content_encoding": 10611, "exceed": 10612, "continu": 10613, "conditionally": 10614, "get_extra": 10615, "estart": 10616, "hit": 10617, "httperror": 10618, "servererror": 10619, "acceptable": 10620, "log_format": 10621, "interpret": 10622, "_check": 10623, "value2": 10624, "x01": 10625, "importable": 10626, "highest": 10627, "coded": 10628, "_hook": 10629, "__enter__": 10630, "eral": 10631, "safely": 10632, "emits": 10633, "particularly": 10634, "documented": 10635, "insensit": 10636, "combined": 10637, "packet": 10638, "prefork": 10639, "close_": 10640, "pypy_": 10641, "task_default_": 10642, "exchange_type": 10643, "running_task": 10644, "generics": 10645, "asse": 10646, "pycouchdb": 10647, "apply_target": 10648, "migrate": 10649, "workerworker": 10650, "on_event": 10651, "encryp": 10652, "stamped_headers": 10653, "item2": 10654, "changed_": 10655, "a_signal": 10656, "revok": 10657, "paralle": 10658, "parallel": 10659, "context_processors": 10660, "lp": 10661, "entry_points": 10662, "variad": 10663, "variadic": 10664, "mx": 10665, "padding": 10666, "_origin": 10667, "paragraphs": 10668, "ides": 10669, "ensive": 10670, "rol": 10671, "_po": 10672, "consult": 10673, "shell_completion": 10674, "badparameter": 10675, "bright_": 10676, "94": 10677, "detailed": 10678, "dt_settings": 10679, "bootstrap": 10680, "_urls": 10681, "as_view": 10682, "_internal_": 10683, "rstrip": 10684, "transactions": 10685, "ro_": 10686, "vi_v": 10687, "vi_vn": 10688, "_tw": 10689, "reg_": 10690, "reg_pub": 10691, "csv": 10692, "deterministic": 10693, "slugify": 10694, "_allow_": 10695, "city_suffixes": 10696, "aven": 10697, "3c": 10698, "b00": 10699, "horizontal": 10700, "uit": 10701, "ao": 10702, "argentina": 10703, "correspond": 10704, "insur": 10705, "insurance": 10706, "ino": 10707, "02d": 10708, "colo": 10709, "born": 10710, "dob": 10711, "men": 10712, "ampho": 10713, "amphoe": 10714, "bile": 10715, "kinds": 10716, "2025": 10717, "ار": 10718, "آل": 10719, "আম": 10720, "david": 10721, "ona": 10722, "ко": 10723, "ión": 10724, "ный": 10725, "pricetag": 10726, "estr": 10727, "blank": 10728, "зел": 10729, "xanh": 10730, "s_in_": 10731, "hypothe": 10732, "hypotheti": 10733, "hypothetical": 10734, "necessarily": 10735, "ipv6interface": 10736, "allow_inf": 10737, "allow_inf_n": 10738, "allow_inf_nan": 10739, "comparing": 10740, "_schemas": 10741, "openapi_url": 10742, "options_": 10743, "user_me": 10744, "aliased_name": 10745, "appname": 10746, "_items__item_id": 10747, "importance": 10748, "test_post_body_": 10749, "_scalar": 10750, "bytes_schema": 10751, "app_context": 10752, "test_request_context": 10753, "converter": 10754, "solve": 10755, "_current_": 10756, "portion": 10757, "unmapped": 10758, "n2": 10759, "defined_": 10760, "errors1": 10761, "fixture_path_re": 10762, "fixture_path_reposit": 10763, "fixture_path_repositories": 10764, "repository_pool": 10765, "distributionhash": 10766, "envs": 10767, "_syn": 10768, "venv_cache": 10769, "dataclass_transform": 10770, "pydanticdeprecationwarning": 10771, "_env_prefix": 10772, "prebuilt": 10773, "durations": 10774, "env_nested_delimiter": 10775, "env_parse_": 10776, "none_str": 10777, "nox": 10778, "pysqlite": 10779, "pymssql": 10780, "somefoo": 10781, "_criteria": 10782, "ddlelement": 10783, "sharded": 10784, "asdecimal": 10785, "row_number": 10786, "polymorphic_on": 10787, "undefer": 10788, "_polymorphic": 10789, "close_all": 10790, "querycontext": 10791, "n1": 10792, "rowcount": 10793, "hascachekey": 10794, "mappingresult": 10795, "unsigned": 10796, "oph": 10797, "ophase": 10798, "dbapis": 10799, "visitable": 10800, "bakedquery": 10801, "fromcache": 10802, "score": 10803, "help_text": 10804, "parameter_types": 10805, "resolving": 10806, "resume_": 10807, "client_req": 10808, "client_reqrep": 10809, "frozen_": 10810, "sha1": 10811, "_read_": 10812, "decoder": 10813, "aug": 10814, "semi": 10815, "lookups": 10816, "readline": 10817, "notfound": 10818, "resolves": 10819, "qd": 10820, "_noti": 10821, "problems": 10822, "on_startup": 10823, "rl": 10824, "cursors": 10825, "300": 10826, "rewriting": 10827, "subclassing": 10828, "codspeed": 10829, "slot": 10830, "503": 10831, "rss": 10832, "coales": 10833, "__exit__": 10834, "111": 10835, "201": 10836, "_title": 10837, "loops": 10838, "bare": 10839, "alance": 10840, "readonly": 10841, "confirmation": 10842, "belongs": 10843, "reached": 10844, "finish": 10845, "consistency": 10846, "__del": 10847, "moment": 10848, "memcache": 10849, "_add_": 10850, "periodic": 10851, "greenletexit": 10852, "gid": 10853, "naive": 10854, "changelog": 10855, "installs": 10856, "enames": 10857, "_arguments": 10858, "_queues": 10859, "__traceback": 10860, "gethost": 10861, "dk": 10862, "firestore": 10863, "quiet": 10864, "scratch": 10865, "set_trace": 10866, "online": 10867, "sym": 10868, "receivers": 10869, "autoscaler": 10870, "systems": 10871, "identity_task": 10872, "great": 10873, "data_type": 10874, "context_settings": 10875, "converting": 10876, "_spawn": 10877, "logical": 10878, "printing": 10879, "consists": 10880, "dburi": 10881, "plan": 10882, "invokes": 10883, "flag_value": 10884, "styles": 10885, "get_command": 10886, "facing": 10887, "_created": 10888, "stack_trace": 10889, "nesting": 10890, "_page": 10891, "custo": 10892, "_save": 10893, "_files": 10894, "languages": 10895, "sexliteral": 10896, "cs_cz": 10897, "el_": 10898, "el_gr": 10899, "pl_pl": 10900, "_part": 10901, "th_th": 10902, "spanish": 10903, "registrantr": 10904, "hyph": 10905, "f4": 10906, "a5": 10907, "organ": 10908, "orient": 10909, "oriented": 10910, "cro": 10911, "_speech": 10912, "bf": 10913, "brand": 10914, "130": 10915, "421": 10916, "occurrences": 10917, "ιο": 10918, "աց": 10919, "관리": 10920, "관리자": 10921, "diret": 10922, "diretor": 10923, "_word": 10924, "tld": 10925, "дол": 10926, "_examples": 10927, "sessiondep": 10928, "common_parameters": 10929, "isoneof": 10930, "exclude_unset": 10931, "pytestmark": 10932, "mone": 10933, "money": 10934, "yout": 10935, "story": 10936, "ref_template": 10937, "with_info_plain_validator_function": 10938, "__pydantic_core_schema__": 10939, "x_token": 10940, "modifying": 10941, "inlin": 10942, "add_url": 10943, "add_url_rule": 10944, "ansio": 10945, "t_template_": 10946, "auth_flow": 10947, "more_body": 10948, "error2": 10949, "errors2": 10950, "prereleases": 10951, "as_posix": 10952, "config_data": 10953, "poe": 10954, "link_sources": 10955, "rootpage": 10956, "_poetry": 10957, "rebuild_": 10958, "_used": 10959, "plugg": 10960, "validator__": 10961, "populate_": 10962, "is_instance": 10963, "reve": 10964, "reveal": 10965, "_case_sensitive": 10966, "extra_behavior": 10967, "_ser_schema": 10968, "pluggy": 10969, "_exit_on_": 10970, "test_it": 10971, "_ispytest": 10972, "collectreport": 10973, "basere": 10974, "getgroup": 10975, "_is_compiled": 10976, "versioning": 10977, "run_setup_mappers": 10978, "a_id": 10979, "with_loader_criteria": 10980, "nulls_": 10981, "columnproperty": 10982, "passiveflag": 10983, "outerjoin": 10984, "type_coerce": 10985, "apply_syntax": 10986, "apply_syntax_extension": 10987, "apply_syntax_extension_": 10988, "apply_syntax_extension_point": 10989, "subqueries": 10990, "preparer": 10991, "_cat": 10992, "lastrowid": 10993, "fairy": 10994, "connectstring": 10995, "loose": 10996, "backward": 10997, "fing": 10998, "finger": 10999, "fingerprint": 11000, "_payload": 11001, "ceil": 11002, "parse_cookie_header": 11003, "compresso": 11004, "compressobj": 11005, "304": 11006, "_write": 11007, "_lookup": 11008, "_chain": 11009, "aiohttpserver": 11010, "semantic": 11011, "_route": 11012, "floating": 11013, "ssl_context": 11014, "graceful": 11015, "_release": 11016, "on_shutdown": 11017, "send_str": 11018, "httpbin": 11019, "combination": 11020, "_local": 11021, "default_context": 11022, "fine": 11023, "trustme": 11024, "feed_data": 11025, "e4": 11026, "2021": 11027, "explo": 11028, "hexdigest": 11029, "pythonpath": 11030, "tls_certific": 11031, "tls_certificate_": 11032, "alloc": 11033, "detach": 11034, "_cause": 11035, "chosen": 11036, "simpler": 11037, "_obj": 11038, "meant": 11039, "assumes": 11040, "deleg": 11041, "stra": 11042, "triggers": 11043, "share": 11044, "accounts": 11045, "reflects": 11046, "pip_": 11047, "crontab": 11048, "humanize": 11049, "ignore_errors": 11050, "fx": 11051, "pendingdeprecationwarning": 11052, "intervals": 11053, "itu": 11054, "worker_process_": 11055, "worker_process_init": 11056, "_final": 11057, "ico": 11058, "_order": 11059, "sqlite3": 11060, "nonexistent": 11061, "_something": 11062, "ply": 11063, "logrecord": 11064, "replies": 11065, "cli_runner": 11066, "traceback_": 11067, "erry": 11068, "accur": 11069, "date_done": 11070, "wp": 11071, "q1": 11072, "_access_key": 11073, "sanity": 11074, "dumper": 11075, "george": 11076, "five": 11077, "parse_iso8601": 11078, "locks": 11079, "mingle": 11080, "consumer_mock": 11081, "restar": 11082, "fixturevalue": 11083, "qualified": 11084, "boom": 11085, "lit": 11086, "err_": 11087, "pygments": 11088, "ipython": 11089, "mutex": 11090, "ics": 11091, "supported_": 11092, "rely": 11093, "test_command": 11094, "show_": 11095, "_indent": 11096, "coordinate": 11097, "environments": 11098, "webdriver": 11099, "headless": 11100, "displays": 11101, "reas": 11102, "reason_": 11103, "reason_phrase": 11104, "pets": 11105, "get_type_hints": 11106, "available_locales": 11107, "inherited": 11108, "global_": 11109, "mock_print": 11110, "ij": 11111, "max_value": 11112, "_weight": 11113, "nl_be": 11114, "mastercard": 11115, "passport_number": 11116, "website": 11117, "_check_digit": 11118, "bt": 11119, "docs_": 11120, "accom": 11121, "_range": 11122, "anti": 11123, "amar": 11124, "fffa": 11125, "wide": 11126, "maest": 11127, "maestro": 11128, "bang": 11129, "dinar": 11130, "australi": 11131, "associate": 11132, "sin": 11133, "ril": 11134, "nit": 11135, "idad": 11136, "population": 11137, "sz": 11138, "án": 11139, "andr": 11140, "bol": 11141, "éd": 11142, "উন": 11143, "agrar": 11144, "νο": 11145, "ար": 11146, "food": 11147, "oblast": 11148, "xn": 11149, "run_in_threadpool": 11150, "lers": 11151, "_in_schema": 11152, "lenient_issubclass": 11153, "callback_router": 11154, "jsonapi": 11155, "plainserializer": 11156, "swagger_": 11157, "test_query_params_str_validations_q": 11158, "model_rebuild": 11159, "tutorial003_an_py310": 11160, "_list_alias": 11161, "email_validator": 11162, "startresponse": 11163, "begun": 11164, "fetchone": 11165, "pkt": 11166, "idna": 11167, "evalcontext": 11168, "unary": 11169, "exported": 11170, "keyed": 11171, "entirely": 11172, "parse_constraint": 11173, "poetrytest": 11174, "poetrytestapplication": 11175, "check_solver": 11176, "check_solver_result": 11177, "release_info": 11178, "_python_version": 11179, "sysconfig": 11180, "venv_dir": 11181, "mocked_poetry_managed_": 11182, "mocked_poetry_managed_python_register": 11183, "envs_file": 11184, "basedir": 11185, "__hash": 11186, "__hash__": 11187, "validatorfunction": 11188, "type_adapter": 11189, "pydantic_encoder": 11190, "notrequired": 11191, "test_plugin": 11192, "outermodel": 11193, "named_": 11194, "verride": 11195, "default_schema": 11196, "12345678901234567890": 11197, "junit": 11198, "insert_data": 11199, "attribute_keyed_dict": 11200, "automapbase": 11201, "l1": 11202, "shardedsession": 11203, "_chooser": 11204, "indexable": 11205, "classmanager": 11206, "_returning": 11207, "inspectionattr": 11208, "_statechang": 11209, "maxvalue": 11210, "optionsparameter": 11211, "illustrate": 11212, "message_type": 11213, "user_style": 11214, "asyncscalarresult": 11215, "zerofill": 11216, "setinputsizes": 11217, "index_": 11218, "plugin_base": 11219, "hasaddresses": 11220, "generate_ser": 11221, "generate_series": 11222, "view_names": 11223, "has_rich": 11224, "filetext": 11225, "rich_help": 11226, "rich_help_panel": 11227, "hamada": 11228, "wsproto": 11229, "_cookie_": 11230, "basicauth": 11231, "_fin": 11232, "restrict": 11233, "access_logger": 11234, "unquote": 11235, "aiod": 11236, "nsresolver": 11237, "__a": 11238, "traceconnection": 11239, "abstractroute": 11240, "ax": 11241, "wed": 11242, "directive": 11243, "proceed": 11244, "ssl_cert": 11245, "keyboardinterrupt": 11246, "getcwd": 11247, "idea": 11248, "notified": 11249, "10000": 11250, "_raw": 11251, "responsible": 11252, "friend": 11253, "recip": 11254, "potentially": 11255, "consistent": 11256, "followed": 11257, "race": 11258, "ond": 11259, "rejected": 11260, "dropped": 11261, "accessible": 11262, "manages": 11263, "ety": 11264, "msgpack": 11265, "stopped": 11266, "taskerror": 11267, "_get_current_": 11268, "_get_current_object": 11269, "ready_": 11270, "sigint": 11271, "comb": 11272, "bindings": 11273, "exchanges": 11274, "acks_": 11275, "wait_for": 11276, "retried": 11277, "haz": 11278, "hazmat": 11279, "trad": 11280, "issuer": 11281, "settings_module": 11282, "newer": 11283, "drain_events": 11284, "deselect": 11285, "east": 11286, "__reduce": 11287, "center": 11288, "get_by_": 11289, "celery_r": 11290, "443": 11291, "lambdas": 11292, "basepool": 11293, "tref": 11294, "shutter": 11295, "privatekey": 11296, "365": 11297, "tri": 11298, "avg": 11299, "total_seconds": 11300, "delayed_": 11301, "delayed_delivery": 11302, "visibility": 11303, "expected_error": 11304, "_current": 11305, "replacing": 11306, "although": 11307, "identifiers": 11308, "ascript": 11309, "chance": 11310, "_match": 11311, "sig1": 11312, "base_dir": 11313, "mechanism": 11314, "formatters": 11315, "celerycommand": 11316, "aud": 11317, "gives": 11318, "commun": 11319, "_bl": 11320, "_deprecated": 11321, "grant": 11322, "copies": 11323, "reserved_": 11324, "033": 11325, "expensive": 11326, "generators": 11327, "test_basic": 11328, "ctypes": 11329, "bab": 11330, "completions": 11331, "intran": 11332, "clamp": 11333, "hed": 11334, "pager": 11335, "ship": 11336, "pass_environment": 11337, "tracked": 11338, "parentheses": 11339, "outputs": 11340, "import_string": 11341, "seg": 11342, "ypanel": 11343, "debugtoolbarmiddleware": 11344, "_star": 11345, "pun": 11346, "qualifi": 11347, "ftime": 11348, "sorting": 11349, "default_seed": 11350, "sk_s": 11351, "sk_sk": 11352, "uk_": 11353, "uk_ua": 11354, "creditcardprovider": 11355, "jpe": 11356, "jpeg": 11357, "_registrant": 11358, "_registrant_": 11359, "_registrant_publication": 11360, "registrantrule": 11361, "85": 11362, "9e": 11363, "3d": 11364, "fff0": 11365, "cfc": 11366, "arab": 11367, "ultr": 11368, "asi": 11369, "nis": 11370, "irr": 11371, "ista": 11372, "raw_output": 11373, "polish": 11374, "alph": 11375, "2000": 11376, "032": 11377, "ora": 11378, "ইস": 11379, "alexander": 11380, "artic": 11381, "article": 11382, "wg": 11383, "middle_name": 11384, "_pairs": 11385, "இச": 11386, "άρ": 11387, "max_nb_": 11388, "max_nb_chars": 11389, "avec": 11390, "во": 11391, "ру": 11392, "vet": 11393, "tip": 11394, "อร": 11395, "retrieved": 11396, "intersection": 11397, "max_chars": 11398, "supportederror": 11399, "decimal_encoder": 11400, "websocketexception": 11401, "multiple_of": 11402, "responsevalidationerror": 11403, "pydanticschemageneration": 11404, "pydanticschemagenerationerror": 11405, "dont": 11406, "_state_": 11407, "duplicate_": 11408, "i1": 11409, "_uuid": 11410, "param2": 11411, "tout": 11412, "follow_redirects": 11413, "test_security_http_basic": 11414, "subscription": 11415, "custom_response": 11416, "main_mod": 11417, "read_required": 11418, "test_required_str": 11419, "translation_": 11420, "translation_fix": 11421, "translation_fixer": 11422, "translated_doc_number_": 11423, "get_session": 11424, "app_ctx": 11425, "_plugin": 11426, "flash": 11427, "caf": 11428, "visit_": 11429, "regexp": 11430, "_document": 11431, "tomldocument": 11432, "source_dir": 11433, "add_repository": 11434, "config_settings": 11435, "logcapturefixture": 11436, "client_cert": 11437, "poetr": 11438, "poetrypy": 11439, "poetrypython": 11440, "simpl": 11441, "simplerepository": 11442, "materialized": 11443, "dry": 11444, "source_one": 11445, "_tags": 11446, "generateschema": 11447, "mypy_version": 11448, "__pydantic_validator__": 11449, "no_value": 11450, "modelwithstrict": 11451, "_decorator": 11452, "nestedmodel": 11453, "deferredmodel": 11454, "badex": 11455, "badextramodel": 11456, "badconfig1": 11457, "badconfig2": 11458, "hypothes": 11459, "hypothesis": 11460, "_use_": 11461, "datetime_schema": 11462, "__pydantic": 11463, "__pydantic_serializer": 11464, "__pydantic_serializer__": 11465, "positional_or": 11466, "positional_or_keyword": 11467, "v1validatorwith": 11468, "allow_pickle": 11469, "_exit_on_error": 11470, "clis": 11471, "lese": 11472, "test_2": 11473, "sampledir": 11474, "max_lines": 11475, "drivers": 11476, "_util": 11477, "setup_test": 11478, "greenlet_spawn": 11479, "allitems": 11480, "_shard": 11481, "nextid": 11482, "instance_state": 11483, "ed_columns": 11484, "engineers": 11485, "unitof": 11486, "unitofwork": 11487, "mapperevents": 11488, "_class_registry": 11489, "pg_cat": 11490, "dbapiconnection": 11491, "entitytype": 11492, "for_db": 11493, "_no_op": 11494, "plain_pk": 11495, "datatypes": 11496, "mysqldialect": 11497, "_standard_traceback": 11498, "py_complete": 11499, "test_completion": 11500, "valid_completion": 11501, "valid_completion_items": 11502, "_paused": 11503, "clientresponseerror": 11504, "handsha": 11505, "handshake": 11506, "tracing": 11507, "avoids": 11508, "512": 11509, "base_protocol": 11510, "http_exceptions": 11511, "permitted": 11512, "_patch": 11513, "cache_": 11514, "ietf": 11515, "rawrequest": 11516, "rawrequestmessage": 11517, "editor": 11518, "_eof": 11519, "bytespayload": 11520, "_last": 11521, "threadpoole": 11522, "threadpoolex": 11523, "threadpoolexec": 11524, "threadpoolexecutor": 11525, "_any": 11526, "lenames": 11527, "queu": 11528, "ignal": 11529, "gateway": 11530, "_reason": 11531, "send_file": 11532, "_task_": 11533, "anonymous": 11534, "pytest_plugins": 11535, "250": 11536, "twitter": 11537, "test_no_": 11538, "_environment": 11539, "_handle": 11540, "seen_": 11541, "macos": 11542, "send_json": 11543, "sd": 11544, "backport": 11545, "completes": 11546, "caller": 11547, "falls": 11548, "calculation": 11549, "stops": 11550, "collecting": 11551, "locally": 11552, "patches": 11553, "flight": 11554, "breaks": 11555, "saved": 11556, "calculates": 11557, "tracks": 11558, "solar": 11559, "on_start": 11560, "initializing": 11561, "operational": 11562, "operationalerror": 11563, "2016": 11564, "2009": 11565, "_main": 11566, "colorama": 11567, "yy": 11568, "nullpool": 11569, "nodenames": 11570, "start_worker": 11571, "heartbeats": 11572, "classic": 11573, "fxtr": 11574, "_fast": 11575, "__class_": 11576, "fan": 11577, "isolated_cli_runner": 11578, "vil": 11579, "gcs_": 11580, "fline": 11581, "roid": 11582, "certstore": 11583, "ckey": 11584, "log_policy_": 11585, "_numbers": 11586, "_e": 11587, "abcdef": 11588, "dev_worker": 11589, "discar": 11590, "served": 11591, "weakvalued": 11592, "weakvaluedi": 11593, "weakvaluediction": 11594, "weakvaluedictionary": 11595, "__annotations": 11596, "__annotations__": 11597, "memoize": 11598, "multiprocess": 11599, "sever": 11600, "frontend": 11601, "ctype": 11602, "rewritten": 11603, "maps": 11604, "holders": 11605, "fromisoformat": 11606, "contexts": 11607, "shad": 11608, "signatures": 11609, "get_version": 11610, "configparser": 11611, "secondary_": 11612, "pascal": 11613, "comp_words": 11614, "comp_c": 11615, "comp_cword": 11616, "bob": 11617, "revision": 11618, "press": 11619, "_show_toolbar": 11620, "_panels": 11621, "_template_": 11622, "assertra": 11623, "assertraises": 11624, "response_headers": 11625, "token_type": 11626, "mes": 11627, "factories": 11628, "currencies": 11629, "dz": 11630, "phone_number": 11631, "random_number": 11632, "regions": 11633, "bh": 11634, "bounds": 11635, "f8ff": 11636, "f5f5dc": 11637, "ebcd": 11638, "layer": 11639, "cid": 11640, "ano": 11641, "braz": 11642, "isl": 11643, "__get_": 11644, "a6": 11645, "district": 11646, "бл": 11647, "translate_": 11648, "cia": 11649, "sef": 11650, "mad": 11651, "nes": 11652, "ktor": 11653, "از": 11654, "enders": 11655, "1970": 11656, "अन": 11657, "wils": 11658, "wilson": 11659, "arbitr": 11660, "دي": 11661, "লচ": 11662, "dy": 11663, "finan": 11664, "afp": 11665, "դի": 11666, "e8": 11667, "ão": 11668, "kg": 11669, "lake": 11670, "city_prefix": 11671, "get_swagger_ui": 11672, "_oauth2_redirect": 11673, "secretbytes": 11674, "_extra": 11675, "httpconnection": 11676, "serializes": 11677, "mutually": 11678, "_all_": 11679, "separate_": 11680, "swagger_ui": 11681, "_dep": 11682, "d4": 11683, "js_url": 11684, "s_required": 11685, "ispartial": 11686, "ispartialdict": 11687, "_other": 11688, "authorizationcode": 11689, "dep_b": 11690, "tutorial006_py310": 11691, "session_id": 11692, "save_data": 11693, "8s": 11694, "string_type": 11695, "updated_at": 11696, "test_optional_str": 11697, "_annotation_is_": 11698, "typing_objects": 11699, "s_from_": 11700, "_hasher": 11701, "cffi": 11702, "transparent": 11703, "autoescape": 11704, "operand": 11705, "userschema": 11706, "col2": 11707, "qux": 11708, "artifactcache": 11709, "null_io": 11710, "applicationplugin": 11711, "lazy_wheel": 11712, "source_url": 11713, "_from_url": 11714, "transitivepackageinfo": 11715, "dependencypackage": 11716, "requires_python": 11717, "outdated_": 11718, "_candid": 11719, "_candidates": 11720, "threa": 11721, "prerelease": 11722, "venvs_in_": 11723, "poetry_with": 11724, "poetry_with_source": 11725, "get_real": 11726, "aliasgenerator": 11727, "uple": 11728, "jsondict": 11729, "_decorators": 11730, "env_settings": 11731, "when_used": 11732, "intstr": 11733, "root_validator": 11734, "not_none": 11735, "validate_assignment": 11736, "pg8000": 11737, "aiomysql": 11738, "handlerprotocol": 11739, "polymorphic_serialization": 11740, "round_": 11741, "round_trip": 11742, "collections_": 11743, "ignore_empty": 11744, "clid": 11745, "check_is": 11746, "check_ispytest": 11747, "from_parent": 11748, "_recor": 11749, "autoload": 11750, "iniconfig": 11751, "instant": 11752, "dburl": 11753, "hostspec": 11754, "bakery": 11755, "db1": 11756, "immediateload": 11757, "descriptor_": 11758, "descriptor_props": 11759, "propcomparator": 11760, "close_all_sessions": 11761, "_selectable": 11762, "state_changes": 11763, "uowtransaction": 11764, "path_registry": 11765, "group_by": 11766, "createview": 11767, "froms": 11768, "foo_seq": 11769, "clob": 11770, "associationproxyinstance": 11771, "inherited_": 11772, "keyfunc": 11773, "princ": 11774, "principal": 11775, "printsql": 11776, "_synony": 11777, "autosource": 11778, "rich_": 11779, "rich_markup_mode": 11780, "neural": 11781, "shlex": 11782, "connectionreset": 11783, "connectionreseterror": 11784, "tcp_no": 11785, "tcp_nodelay": 11786, "pause_": 11787, "_middleware": 11788, "stale": 11789, "upgraded": 11790, "codecs": 11791, "compression_utils": 11792, "decodetext": 11793, "kept": 11794, "heartbeat_": 11795, "_best": 11796, "lice": 11797, "etag": 11798, "_since": 11799, "badhttp": 11800, "kb": 11801, "asyncgen": 11802, "aiodns": 11803, "unconditionally": 11804, "get_extra_info": 11805, "test__": 11806, "appkey": 11807, "start_time": 11808, "translate": 11809, "_bound": 11810, "life": 11811, "auth_header": 11812, "3600": 11813, "refreshed": 11814, "pformat": 11815, "wel": 11816, "ster_": 11817, "_ben": 11818, "_bench": 11819, "_benchmark": 11820, "_serialize": 11821, "sun": 11822, "import_path": 11823, "alternatively": 11824, "disables": 11825, "cleared": 11826, "among": 11827, "expan": 11828, "expanded": 11829, "asp": 11830, "_meta": 11831, "run_at": 11832, "chainmap": 11833, "_seq": 11834, "invalidtaskerror": 11835, "minate": 11836, "__get__": 11837, "darwin": 11838, "taskset": 11839, "ceeded": 11840, "bsd": 11841, "ignored_": 11842, "get_task_logger": 11843, "listing": 11844, "tracem": 11845, "tracemalloc": 11846, "maintains": 11847, "rpc": 11848, "quorum_queues": 11849, "509": 11850, "tradit": 11851, "unpickleable": 11852, "set_level": 11853, "tasktermination": 11854, "__reduce__": 11855, "matter": 11856, "ulate": 11857, "old_key": 11858, "exitstack": 11859, "shallow": 11860, "unregister": 11861, "_non_": 11862, "_skip_": 11863, "hb": 11864, "_subclass": 11865, "ble": 11866, "brown": 11867, "_sample": 11868, "modname": 11869, "__members": 11870, "__members__": 11871, "ghi": 11872, "coff": 11873, "on_task": 11874, "_scale": 11875, "test_create": 11876, "exited": 11877, "selection": 11878, "attrgetter": 11879, "pluralize": 11880, "pretty_": 11881, "uniontype": 11882, "sell": 11883, "dam": 11884, "contract": 11885, "_classes": 11886, "databaseerror": 11887, "practice": 11888, "janu": 11889, "projectlink": 11890, "_sidebar": 11891, "abstractcontextmanager": 11892, "fc": 11893, "derr": 11894, "_wrap": 11895, "adam": 11896, "question": 11897, "gettext_": 11898, "gettext_lazy": 11899, "signeddata": 11900, "signeddataform": 11901, "_form": 11902, "cleaned_data": 11903, "get_stats": 11904, "server_name": 11905, "hsv": 11906, "capable": 11907, "seed_": 11908, "bei": 11909, "ro_ro": 11910, "_tr": 11911, "jajp": 11912, "jajpprovider": 11913, "factors": 11914, "ester": 11915, "fd4": 11916, "0000ff": 11917, "ff7f": 11918, "ff00ff": 11919, "card_type": 11920, "lades": 11921, "chile": 11922, "zech": 11923, "jer": 11924, "_identifier": 11925, "133": 11926, "artist": 11927, "why": 11928, "nonbinary": 11929, "eston": 11930, "ich": 11931, "aad": 11932, "corp": 11933, "depart": 11934, "department": 11935, "pes": 11936, "nn": 11937, "cellphone_formats": 11938, "134": 11939, "ور": 11940, "ات": 11941, "কর": 11942, "benj": 11943, "christ": 11944, "fre": 11945, "ía": 11946, "lia": 11947, "sé": 11948, "அக": 11949, "αι": 11950, "ал": 11951, "viên": 11952, "ičar": 11953, "brevet": 11954, "féd": 11955, "fédér": 11956, "fédéral": 11957, "ato": 11958, "jet": 11959, "կան": 11960, "기술": 11961, "geoprovider": 11962, "دا": 11963, "stag": 11964, "áng": 11965, "գույ": 11966, "գույն": 11967, "eled": 11968, "8a": 11969, "device": 11970, "concatenation": 11971, "_notification": 11972, "exponent": 11973, "_priority": 11974, "lang_path": 11975, "docs_dir": 11976, "imag": 11977, "response2": 11978, "router_b_a": 11979, "client_id": 11980, "ss_": 11981, "read_users": 11982, "test_security_api_key": 11983, "httpbasiccredentials": 11984, "httpdigest": 11985, "form_data": 11986, "test_security_oauth2": 11987, "check_order": 11988, "fight": 11989, "fighters": 11990, "traceparent": 11991, "x_tag": 11992, "_sizes": 11993, "dimens": 11994, "secret_name": 11995, "rmt": 11996, "rmtree": 11997, "read_model_required": 11998, "read_optional": 11999, "fake_items_": 12000, "fake_items_db": 12001, "userindb": 12002, "model_json_schema": 12003, "user_dict": 12004, "create_db": 12005, "load_": 12006, "scaf": 12007, "scaffold": 12008, "pointing": 12009, "escaping": 12010, "add_row": 12011, "no_proxy": 12012, "u6": 12013, "codegenerator": 12014, "eval_context": 12015, "sandboxed": 12016, "syntaxerror": 12017, "init_sub": 12018, "init_subclass__": 12019, "find_all": 12020, "comparisons": 12021, "serializing": 12022, "ivity": 12023, "get_dependency": 12024, "env_var": 12025, "dependency_group": 12026, "_new": 12027, "pretty_name": 12028, "package_": 12029, "venv_name": 12030, "installercommand": 12031, "toml_file": 12032, "_r_comma": 12033, "pydanticdeprecatedsince2": 12034, "_generate_schema": 12035, "wraphandler": 12036, "_schema_validator": 12037, "_validators": 12038, "default_path": 12039, "globally": 12040, "inlined": 12041, "kwargsnomutationmodel": 12042, "y_alias": 12043, "z_alias": 12044, "_argument": 12045, "wrapper_function": 12046, "settingserror": 12047, "cli_exit_on_error": 12048, "json_file": 12049, "yaml_file": 12050, "sqlserver": 12051, "capman": 12052, "fault": 12053, "manif": 12054, "manifest": 12055, "inplace": 12056, "charset_": 12057, "_processors_cy": 12058, "_util_cy": 12059, "code_writer": 12060, "code_writer_cmd": 12061, "_dbapi": 12062, "fetchedvalue": 12063, "_reflection": 12064, "passive_": 12065, "employee_id": 12066, "orderby": 12067, "writeonlymapped": 12068, "lambda_stmt": 12069, "cascad": 12070, "utestate": 12071, "apply_to_": 12072, "lambdaelement": 12073, "books": 12074, "mappedas": 12075, "mappedasdataclass": 12076, "ilike": 12077, "ing_convention": 12078, "on_conflict": 12079, "on_conflict_do": 12080, "operatorclass": 12081, "ingleexecuteparams": 12082, "_constructors": 12083, "_identitykeytype": 12084, "follower_ident": 12085, "_sqlite": 12086, "correl": 12087, "asgi3": 12088, "task_counter": 12089, "completion_script": 12090, "complete_bash": 12091, "trace_log": 12092, "trace_log_level": 12093, "level_name": 12094, "makefile": 12095, "http_writer": 12096, "baseconnector": 12097, "lazily": 12098, "memoryview": 12099, "encodingerror": 12100, "messa": 12101, "messaget": 12102, "messagetext": 12103, "parse_content_disposition": 12104, "enh": 12105, "semantics": 12106, "_trac": 12107, "permanent": 12108, "grad": 12109, "octet": 12110, "correct_": 12111, "5c": 12112, "_forwar": 12113, "2014": 12114, "basicconfig": 12115, "message_count": 12116, "trust_env": 12117, "away": 12118, "ctor": 12119, "m_": 12120, "usefixtures": 12121, "path2": 12122, "attachment": 12123, "_abstract": 12124, "my_dir": 12125, "expected_value": 12126, "referr": 12127, "excluding": 12128, "larger": 12129, "balance": 12130, "rup": 12131, "payloads": 12132, "substit": 12133, "protect": 12134, "shares": 12135, "treat": 12136, "hang": 12137, "truncated": 12138, "becomes": 12139, "600": 12140, "attr_name": 12141, "hack": 12142, "think": 12143, "app_or_": 12144, "app_or_default": 12145, "remember": 12146, "importer": 12147, "combine": 12148, "palletsprojects": 12149, "solo": 12150, "durable": 12151, "celery_session": 12152, "succeeds": 12153, "should_stop": 12154, "waits": 12155, "declaration": 12156, "django_": 12157, "django_settings_module": 12158, "017": 12159, "_reply": 12160, "__class_get": 12161, "__class_getitem__": 12162, "_consume": 12163, "goss": 12164, "test_table": 12165, "ackend": 12166, "cosmosdbsqlbackend": 12167, "onupdate": 12168, "rd": 12169, "rs": 12170, "does_not_": 12171, "_prefetch": 12172, "ioerror": 12173, "700": 12174, "_ret": 12175, "find_module": 12176, "_reset": 12177, "on_commit": 12178, "_was": 12179, "getfixturevalue": 12180, "ola": 12181, "create_missing": 12182, "mc": 12183, "s_of": 12184, "deals": 12185, "strategy_": 12186, "can_be": 12187, "controlled": 12188, "_search": 12189, "mich": 12190, "express": 12191, "indentation": 12192, "retain": 12193, "shadow": 12194, "_total": 12195, "abilities": 12196, "sys_": 12197, "registers": 12198, "registering": 12199, "uring": 12200, "sv": 12201, "terminal_width": 12202, "completionitem": 12203, "intrange": 12204, "get_text": 12205, "env_vars": 12206, "popped": 12207, "commits": 12208, "exposed": 12209, "async_mode": 12210, "internal_": 12211, "internal_ips": 12212, "milli": 12213, "milliseconds": 12214, "sqlpanel": 12215, "_num": 12216, "user_count": 12217, "enctype": 12218, "finder": 12219, "script_name": 12220, "isolationlevel": 12221, "composed": 12222, "weighting": 12223, "_locale": 12224, "hy_": 12225, "hy_am": 12226, "pt_br": 12227, "pt_pt": 12228, "nl_n": 12229, "nl_nl": 12230, "jcb": 12231, "expected_output": 12232, "cdf": 12233, "avenue": 12234, "8a2": 12235, "8a2be": 12236, "8a2be2": 12237, "bdb": 12238, "8f": 12239, "224": 12240, "lize": 12241, "htm": 12242, "archit": 12243, "har": 12244, "engali": 12245, "1900": 12246, "ám": 12247, "998": 12248, "ре": 12249, "00420": 12250, "mobile": 12251, "ley": 12252, "شر": 12253, "frank": 12254, "nar": 12255, "gab": 12256, "aide": 12257, "ika": 12258, "wan": 12259, "লক": 12260, "ست": 12261, "müh": 12262, "ronom": 12263, "inž": 12264, "bic": 12265, "assistant": 12266, "ան": 12267, "ინ": 12268, "ção": 12269, "inh": 12270, "company_type": 12271, "এশ": 12272, "_ad": 12273, "guine": 12274, "นด": 12275, "բաց": 12276, "tü": 12277, "ffffff": 12278, "numeric_": 12279, "vised": 12280, "motorbi": 12281, "city_prefixes": 12282, "street_prefixes": 12283, "región": 12284, "apped": 12285, "notsupportederror": 12286, "include_in_schema": 12287, "orjsonresponse": 12288, "ruff": 12289, "permal": 12290, "permalink": 12291, "s_str": 12292, "test_path_operation": 12293, "sub_": 12294, "sub_items": 12295, "securityscopes": 12296, "test_invalid": 12297, "apikeyquery": 12298, "tutorial007": 12299, "ads_": 12300, "_specifi": 12301, "data_lines": 12302, "read_model_optional": 12303, "test_option": 12304, "new_context": 12305, "get_by_role": 12306, "is_dataclass": 12307, "pydanticundefinedannotation": 12308, "asdict": 12309, "klu": 12310, "kludex": 12311, "site_packages": 12312, "before_request": 12313, "after_request": 12314, "_folder": 12315, "blueprints": 12316, "decorating": 12317, "hoc": 12318, "copy_with": 12319, "_private_": 12320, "pyc": 12321, "endtrans": 12322, "fractional": 12323, "pre_load": 12324, "myschema": 12325, "get_value": 12326, "binds": 12327, "packagenotfounderror": 12328, "_legacy": 12329, "enode": 12330, "build_system": 12331, "_pure": 12332, "_purelib": 12333, "platlib": 12334, "venv_path": 12335, "installcommand": 12336, "executables": 12337, "emulated": 12338, "line_error": 12339, "propagated": 12340, "s_true": 12341, "_namespace_utils": 12342, "configwrapper": 12343, "localns": 12344, "root_model": 12345, "anycallablet": 12346, "psycopg2cffi": 12347, "validate_by_name": 12348, "float_schema": 12349, "02t12": 12350, "json_loads": 12351, "is_union": 12352, "file_secret": 12353, "file_secret_settings": 12354, "interaction": 12355, "pydantic_js": 12356, "soup": 12357, "coercion": 12358, "pyprojecttomlconfigsettingssource": 12359, "tomlconfigsettingssource": 12360, "awssecretsmanagersettingssource": 12361, "configvalue": 12362, "medium": 12363, "distance": 12364, "sqla": 12365, "defaultload": 12366, "teardown_test": 12367, "not_in": 12368, "collections_abc": 12369, "_sa_": 12370, "orderinglist": 12371, "declarativ": 12372, "declarativem": 12373, "hybrid_method": 12374, "relationshipproperty": 12375, "post_criteria": 12376, "_sales": 12377, "_insert": 12378, "sqlcolumnexpression": 12379, "nchar": 12380, "bindvalue": 12381, "begin_": 12382, "begin_nested": 12383, "as_uuid": 12384, "stmt1": 12385, "array_": 12386, "array_agg": 12387, "objectkind": 12388, "engineer_name": 12389, "ctes": 12390, "unicodetext": 12391, "indextype": 12392, "poolevents": 12393, "dbapimodule": 12394, "_resultprocessortype": 12395, "memoized_": 12396, "sharding": 12397, "shards": 12398, "unloaded": 12399, "pysqlcipher": 12400, "xid": 12401, "oracle_resolve": 12402, "oracle_resolve_synony": 12403, "oracle_resolve_synonyms": 12404, "parameterinfo": 12405, "formally": 12406, "loop_factory": 12407, "app_state": 12408, "basecookie": 12409, "web_request": 12410, "client_exceptions": 12411, "resume_reading": 12412, "multidictproxy": 12413, "jsonencoder": 12414, "atomic": 12415, "httpprocessing": 12416, "httpprocessingerror": 12417, "wsclose": 12418, "wsclosecode": 12419, "iobase": 12420, "potential": 12421, "injection": 12422, "keep_": 12423, "soon": 12424, "sockname": 12425, "simplenames": 12426, "simplenamespace": 12427, "endparams": 12428, "pok": 12429, "ache": 12430, "raw_path": 12431, "_remove": 12432, "malformed": 12433, "abbreviated": 12434, "inters": 12435, "intersphinx": 12436, "background_tasks": 12437, "exponential": 12438, "token_": 12439, "disallow": 12440, "someone": 12441, "_requestmaker": 12442, "traces": 12443, "response_count": 12444, "pkgutil": 12445, "discover": 12446, "ift": 12447, "assert_outcomes": 12448, "timeit": 12449, "makeconftest": 12450, "_domain": 12451, "groupby": 12452, "655": 12453, "message_": 12454, "stackoverflow": 12455, "cased": 12456, "tmp_path_factory": 12457, "iterdir": 12458, "_commit": 12459, "optimized": 12460, "ints": 12461, "intermedi": 12462, "completely": 12463, "remaining_": 12464, "classifi": 12465, "117": 12466, "_ordering": 12467, "maybe_list": 12468, "limitexceeded": 12469, "workersh": 12470, "workershutdown": 12471, "privi": 12472, "privileg": 12473, "privileges": 12474, "is_due": 12475, "task_publish": 12476, "contact": 12477, "_backend_settings": 12478, "5000": 12479, "produc": 12480, "result_": 12481, "always_": 12482, "_5": 12483, "meas": 12484, "queue_name": 12485, "become": 12486, "rsa": 12487, "_certifi": 12488, "config_from_": 12489, "workerkill": 12490, "cachebackend": 12491, "catch_exceptions": 12492, "_register_": 12493, "120": 12494, "elapsed": 12495, "_blob": 12496, "__len": 12497, "__len__": 12498, "conform": 12499, "semap": 12500, "semaph": 12501, "semaphore": 12502, "optimizations": 12503, "pred": 12504, "connection_for_": 12505, "buffer_": 12506, "namedtemporaryfile": 12507, "on_chord_": 12508, "int_type": 12509, "notation": 12510, "ahead": 12511, "timer2": 12512, "should_": 12513, "son": 12514, "sometimes": 12515, "volume": 12516, "javascript": 12517, "5s": 12518, "_object": 12519, "backup": 12520, "pre_": 12521, "inspired": 12522, "occurring": 12523, "ising": 12524, "estring": 12525, "differences": 12526, "several": 12527, "managing": 12528, "declaring": 12529, "nic": 12530, "dropping": 12531, "silent": 12532, "serializers": 12533, "datetimes": 12534, "consulted": 12535, "deep_": 12536, "found_": 12537, "snake_case": 12538, "hide_input": 12539, "_stderr": 12540, "resolve_": 12541, "2001": 12542, "shell_complete": 12543, "binaryio": 12544, "mine": 12545, "cm": 12546, "pi": 12547, "underscores": 12548, "_vars": 12549, "strp": 12550, "get_config": 12551, "existing_": 12552, "assertfalse": 12553, "_finished": 12554, "150": 12555, "fullargspec": 12556, "_formatter": 12557, "probability": 12558, "fa_": 12559, "fa_ir": 12560, "hu_": 12561, "hu_hu": 12562, "enus": 12563, "_changed_": 12564, "literals": 12565, "79": 12566, "00ffff": 12567, "7fffd4": 12568, "b88": 12569, "ff7f50": 12570, "008b": 12571, "808080": 12572, "4b00": 12573, "4b0082": 12574, "_identification": 12575, "islands": 12576, "sey": 12577, "isra": 12578, "riel": 12579, "kh": 12580, "153": 12581, "director": 12582, "part_of": 12583, "part_of_speech": 12584, "german": 12585, "gujar": 12586, "gujarati": 12587, "999999": 12588, "chro": 12589, "birth_number": 12590, "heal": 12591, "health": 12592, "outdated": 12593, "effective": 12594, "2018": 12595, "cô": 12596, "102": 12597, "jos": 12598, "andar": 12599, "ara": 12600, "ric": 12601, "אל": 12602, "ав": 12603, "a7": 12604, "endi": 12605, "الأ": 12606, "بي": 12607, "ický": 12608, "σι": 12609, "almost": 12610, "زر": 12611, "ավ": 12612, "óg": 12613, "ικός": 12614, "agente": 12615, "연구": 12616, "연구원": 12617, "기술자": 12618, "ça": 12619, "mu": 12620, "جن": 12621, "άριο": 12622, "ลล": 12623, "company_prefixes": 12624, "سیمان": 12625, "داك": 12626, "داكن": 12627, "mium": 12628, "зелен": 12629, "vehi": 12630, "vehicles": 12631, "shire": 12632, "fort": 12633, "divi": 12634, "4000": 12635, "iland": 12636, "_today": 12637, "placeholders": 12638, "disting": 12639, "distingu": 12640, "exception_handlers": 12641, "add_task": 12642, "fastapierror": 12643, "avat": 12644, "avatar": 12645, "avatarurl": 12646, "sponsors": 12647, "namedsession": 12648, "named_session": 12649, "__code": 12650, "__code__": 12651, "customclass": 12652, "redoc_": 12653, "simple_include": 12654, "oauth2authorizationcode": 12655, "oauth2authorizationcodebearer": 12656, "subsub": 12657, "_items__item_id__get": 12658, "tenders": 12659, "night": 12660, "danger": 12661, "dangerous": 12662, "amaz": 12663, "amazing": 12664, "needy": 12665, "teleport": 12666, "doctype": 12667, "modelrequiredlist": 12668, "test_required_list_str": 12669, "_alias_schema": 12670, "wsgimiddleware": 12671, "field_title_generator": 12672, "get_username": 12673, "getelement": 12674, "asgitransport": 12675, "sansio": 12676, "my_response": 12677, "icom": 12678, "muse": 12679, "museum": 12680, "__init_subclass__": 12681, "dump_only": 12682, "poetrykeyring": 12683, "git_revision": 12684, "base_env": 12685, "python_versions": 12686, "create_pool": 12687, "to_string": 12688, "syspath": 12689, "pypi_and_": 12690, "pypi_and_other": 12691, "derive": 12692, "preflight": 12693, "_mock_": 12694, "conflicting": 12695, "class_validators": 12696, "_named": 12697, "serializationinfo": 12698, "hosturl": 12699, "positiveint": 12700, "paymentcard": 12701, "wrapvalidator": 12702, "defer_": 12703, "_pos_required": 12704, "pydanticserializationerror": 12705, "rack": 12706, "serialize_as_": 12707, "serialize_as_any": 12708, "123456789123456789123456789": 12709, "metaclassarguments": 12710, "future_model": 12711, "overridemodel": 12712, "multiinherit": 12713, "multiinheritanc": 12714, "multiinheritancemodel": 12715, "pets1": 12716, "values_schema": 12717, "with_default_schema": 12718, "expected_python": 12719, "jsonconfigsettingssource": 12720, "azurekeyvaultsettingssource": 12721, "_argcomplete": 12722, "test_bar": 12723, "assemb": 12724, "teardowns": 12725, "baseexceptiongroup": 12726, "simpledata": 12727, "simpledataobject": 12728, "deletion": 12729, "deselected": 12730, "caseinsensit": 12731, "caseinsensitived": 12732, "caseinsensitivedict": 12733, "_detection": 12734, "provisioning": 12735, "foreign_keys": 12736, "fnum": 12737, "taext_": 12738, "asyncadapt_dbapi": 12739, "exec_sql": 12740, "executableddlelement": 12741, "index_property": 12742, "mutabledict": 12743, "loadercall": 12744, "loadercallablestat": 12745, "loadercallablestatus": 12746, "order_items": 12747, "make_transient": 12748, "dingal": 12749, "nowait": 12750, "people_id": 12751, "columndefault": 12752, "return_defaults": 12753, "scalarselect": 12754, "smallint": 12755, "frozenresult": 12756, "naming_convention": 12757, "to_ts": 12758, "cattable": 12759, "behavioral": 12760, "regconfig": 12761, "users_x": 12762, "users_xtra": 12763, "ddlevents": 12764, "operatortype": 12765, "anon_map": 12766, "u6e2": 12767, "u6e2c": 12768, "u8a": 12769, "u8a66": 12770, "data_table": 12771, "_sqltypes": 12772, "filter_names": 12773, "filebinary": 12774, "multi_app": 12775, "vase": 12776, "test_call_arg": 12777, "spark": 12778, "sparkles": 12779, "serverstate": 12780, "limit_max_": 12781, "limit_max_requests": 12782, "match_info": 12783, "proxyerror": 12784, "requestinfo": 12785, "frozen_dataclass_decorator": 12786, "ws_key": 12787, "eric": 12788, "tail": 12789,
[...]
